[UNK]
[CLS]
[SEP]
[PAD]
[MASK]
!
"
#
$
%
&
'
(
)
*
+
,
-
.
/
0
1
2
3
4
5
6
7
8
9
:
;
<
=
>
?
@
A
B
C
D
E
F
G
H
I
J
K
L
M
N
O
P
Q
R
S
T
U
V
W
X
Y
Z
[
\
]
^
_
`
a
b
c
d
e
f
g
h
i
j
k
l
m
n
o
p
q
r
s
t
u
v
w
x
y
z
{
|
}
~
##4
##1
##2
##3
##e
##t
##r
##o
##c
##l
##a
##0
##5
##9
##6
##7
##m
##x
##A
##C
##T
##G
##8
##R
##s
##h
##P
##u
##i
##n
##z
##y
##k
##f
##S
##H
##E
##_
##b
##J
##M
##d
##g
##j
##p
##q
##O
##I
##L
##B
##F
##N
##D
##V
##Q
##W
##v
##X
##K
##w
##Y
##U
##{
##}
##'
##Z
##)
##.
##*
##"
##,
##-
##^
##(
##<
##>
##+
##$
##[
##]
##:
##/
##%
##=
##;
##~
###
##|
##@
##!
##\
##?
##`
##&
##ti
##er
##on
##en
th
##es
##in
##ed
##al
the
##or
##nd
##at
##an
in
of
##tion
##ar
##ro
and
##ic
##it
##is
##as
##el
##re
##ent
##ing
##ec
##ation
##ol
to
##om
##et
##ac
##ur
##ul
##le
20
##os
##ig
##th
##us
##id
10
##il
##ith
##tr
##ve
##ter
Th
for
##em
##ati
with
##ce
##ly
##am
con
re
pro
an
##ere
##ess
##ts
##im
##uc
##od
##ab
##ow
##um
as
##if
st
##ot
##tic
##ity
##ut
##oc
ex
al
is
##ir
##ys
##ell
##ng
The
##ated
##ag
##ers
##ion
on
##og
##op
##ud
##ad
##ment
##ev
was
##ain
res
##ate
ac
com
were
that
##un
##ch
be
##ib
##ap
by
##ted
##rom
).
##iv
##pl
##ure
or
wh
In
##ep
##ical
##00
##ant
us
##igh
201
ch
##ence
##up
##ff
##ri
##qu
##iz
are
##ub
##ine
##ay
dis
at
from
##te
##ase
im
##ting
cell
##ents
##ang
##ies
##fer
pr
##pec
##ou
tr
##orm
comp
stud
inc
202
11
##and
ad
##ign
##ens
##ear
sh
##ia
200
gen
##ans
##ations
##tiv
##ial
19
##por
##ore
##ip
exp
ind
##olog
##able
##ress
),
##ition
##ous
##ific
per
##ons
##enti
##anc
##ich
12
##ver
##ect
##ther
##yp
##tive
##ors
##enc
ne
##ug
en
##ance
par
##act
ass
##ary
Ch
inf
co
de
##ph
##evel
str
##st
##ard
inter
anal
we
##our
dif
##ach
##ual
not
##eth
##ong
##ata
##ak
this
ap
##ely
##age
##est
cl
pre
et
rec
sign
pati
##ath
mod
##vi
##etw
##ue
##erm
##ative
study
eff
##end
ph
cont
##duc
gro
##ased
##ew
pl
##ection
13
##ari
##all
differ
##ular
cells
15
rel
##eal
##16
00
high
ha
##oll
##ist
##pro
##ple
##een
reg
which
##ost
analys
cons
##ese
di
##ge
trans
##ast
.,
##ory
ob
spec
##form
##ression
ab
##ates
se
14
##ution
sc
show
##ater
##ome
##etween
have
between
data
patients
##ill
##rol
##NA
##tein
me
16
Fig
##ding
##erv
##ym
##ight
using
##yst
tre
sub
##ros
##ealth
##iti
17
##ech
int
all
un
ev
--
##cess
##ility
##ob
can
##oci
##ction
##ally
##dition
##mun
##10
analysis
18
##ov
##are
##ci
##per
##ology
Al
##tin
##yl
##ound
##ass
resul
##ose
##pt
##oth
signific
mic
##res
am
St
sam
det
##ide
##tim
group
##ail
ar
##ulation
##one
##ever
+-
##ating
##ber
##trib
##ied
cor
##lud
##ond
activ
An
##so
val
##ood
##11
med
Res
protein
incre
Bi
model
##uld
significant
used
This
##ork
##av
und
sur
level
vari
pos
##ues
##yn
it
##port
##ected
sup
##acter
le
##unction
##12
##earch
pres
##iss
also
##ox
##ack
bi
##fter
tim
##ystem
25
##ive
##ish
their
##ile
inv
##ancer
##ethod
##uch
##ences
compar
resp
anti
100
sp
30
##atment
includ
##ases
24
##ized
##ik
do
##gr
##20
##ization
has
##action
##38
des
##ree
##ants
man
these
##ects
##wo
##ord
than
##lu
##ene
associ
ag
Com
control
met
##plic
##eg
##15
##eng
22
bl
been
##uring
##ures
We
##14
##cl
other
treatment
##atic
Un
%)
##ult
##tern
Med
##13
red
expression
##als
##entr
dec
23
fact
##ra
##evelop
##uct
more
Pro
acc
##tain
##ace
##ite
out
low
partic
##aus
##ivers
199
##ne
##tal
##ism
no
##ature
two
id
##und
based
##ease
may
##ark
gene
##entif
system
function
##ian
##yt
##erg
Ac
perform
##17
33
##19
##osis
health
after
exper
##ological
em
##out
##hib
##arg
##inal
Sci
studies
time
dep
##ability
As
results
respons
##ollow
##tical
indic
over
##18
different
prov
rep
28
el
appro
##ale
min
num
1016
Table
##ron
obs
ins
##ole
form
Ph
##ays
##ational
26
##urr
each
27
Con
up
develop
typ
##ential
##ption
29
##amm
##br
method
path
use
##ention
##ium
##inical
##ubl
meas
##ok
##ild
follow
##ha
but
##view
Cl
gr
##les
##atory
000
such
##22
##tit
under
sim
##uth
##ugh
##cri
es
##ined
##gen
##ions
##isk
##ric
##itive
cancer
##uman
##ited
##ct
during
##aph
##ement
conc
50
car
##50
one
observ
both
##inding
##ici
##90
##tribution
##oin
mon
into
repor
##ments
op
##ix
##eu
##yd
##old
##tics
chang
##owever
##art
gener
associated
##23
Figure
##rough
sel
identif
its
non
##uced
our
produc
year
34
cr
Ad
##se
##edic
##agn
##ft
##til
##ogen
##iversity
35
pol
dr
pot
37
##och
##ane
gl
##its
process
##24
disease
##ural
05
levels
##nal
##echn
##ex
##aining
##bi
36
##ities
Am
there
##86
##urther
risk
Li
##ann
##der
##ency
##ould
##ines
immun
##oph
2021
##ivid
number
mul
##26
##ax
Sh
found
end
##ort
tum
40
present
##rop
##own
specific
##ery
##olec
##ute
review
def
##oid
##ock
##27
rem
only
sequ
##ize
##esis
##25
##80
##93
##fore
##ages
through
For
2020
Ex
struct
2022
compared
had
##SA
##aracter
micro
term
##oh
##ulated
activity
research
effect
well
##tig
Im
##40
##ination
genes
##irst
col
##atis
sm
imp
Zh
##olution
human
Tr
##ental
##ible
##tively
clinical
##ital
inhib
##gh
##ently
hyp
##ved
Dis
experim
work
lik
##ples
21
##30
##sy
sug
##echan
##air
shown
fr
##28
##36
##97
##par
loc
2023
##lex
##plement
particip
##cr
pop
95
##ider
##ogr
##ividual
##erap
CD
dem
##led
condition
However
Ar
##arm
addition
auth
##alu
##over
cal
most
higher
reported
observed
##aterial
##eter
##gan
assess
fl
##vious
Health
##rel
conf
qu
effects
fe
##vir
set
##ics
related
##omes
##ormal
could
##idence
coll
test
##ough
sugg
when
##eld
predic
##ross
##ains
three
individual
University
##ins
##ink
##ek
exam
br
sens
##ication
Sch
##ilar
so
where
acid
##ective
##ry
##37
##ade
character
##oun
inform
##RNA
##ung
Re
##uction
##vention
##adi
doi
##mon
determ
ser
##46
repres
grow
##ise
##ind
sec
kn
##estig
##ick
2019
##45
38
multi
##ie
within
provid
To
##96
##CA
increased
##ived
prim
##21
##ucle
av
performed
therap
Cell
##47
mem
##ept
mechan
##roph
Wh
##other
factors
respec
##ice
mice
concentr
CO
mg
##onstr
##viron
they
mm
syn
first
##95
60
response
impro
##ured
##35
##cc
##arge
significantly
publ
groups
##ID
including
aff
type
2024
##ores
##usion
##abol
evalu
obtain
import
tes
##ire
among
##aj
##oma
showed
##ateg
##ause
tiss
##ust
##ness
mut
tem
##arget
##ren
##98
prom
45
age
potential
All
samples
extr
##osp
##ey
##aw
vir
##ily
any
##lamm
##sych
main
previous
##itor
consider
years
##ardi
##ograph
Sup
development
tri
ep
role
##ina
values
##ournal
##yc
It
DNA
##asc
lim
those
##otyp
##val
##osph
##pos
mean
requ
##CR
##ody
These
##uted
line
prob
infection
care
##ticle
##iqu
invol
##iter
diagn
##asm
ed
Br
##endent
32
##ision
##crib
##ield
value
48
##48
molec
##CT
Gen
##son
long
2018
##ength
total
patient
pe
##hip
due
##70
##ten
01
##ange
will
##71
rate
##tivity
##ake
##ah
##tid
##ove
ox
correl
neu
CA
dire
pathw
class
target
##ning
while
Rev
del
2010
cap
he
001
On
There
##acy
##af
##60
occ
decre
##iat
##vers
phys
prot
##ties
2009
):
induced
post
2011
##ogn
information
At
Le
gre
mor
need
species
signal
##istr
##havi
2012
coun
child
##ier
investig
##andard
deg
approach
##77
##ained
##ites
##erc
some
##ty
positive
##ification
similar
expl
growth
new
metabol
tumor
##ae
proteins
interaction
lower
distribution
cyt
finding
vis
##ydro
##ified
respectively
80
outc
En
##uk
increase
techn
population
46
orig
Ap
31
##iver
2008
changes
##ether
complex
##az
##ailable
further
##34
disc
2017
##reg
bec
##ety
conditions
##man
##oy
sugges
authors
Neu
##requ
inflamm
lead
mat
demonstr
##29
mechanism
##tis
Pr
Pl
design
##yz
comb
Sp
##ull
##39
##55
same
conduc
##tif
calc
describ
##oint
Research
sample
inj
Int
##oss
##tric
qual
##omen
39
##etwork
##ingle
poss
Ins
##els
##iew
##ording
##fl
blood
90
##ults
##onal
70
stress
##face
small
##ful
##ner
##ms
included
##ically
2013
II
who
##SC
factor
##deg
##AT
mL
##ves
then
##ife
##44
##arly
Wang
##cript
bas
##cop
prog
##ospital
##mit
obtained
##icro
express
add
drug
neg
abs
##vironment
estim
resist
following
material
recept
##urrent
##acc
##uss
param
pers
##65
represent
2007
differences
important
bre
equ
ext
Mar
intr
Data
pat
USA
Chem
normal
##row
standard
##ern
##omic
##75
enh
mark
##88
proper
behavi
##cept
models
##yr
identified
participants
dat
influ
ol
##eh
der
CI
Ind
size
cult
##ool
frequ
access
##iod
55
measure
statis
vers
##uff
article
MA
##med
##ference
Ab
##ensity
##ival
sever
##emic
organ
fib
75
cases
##iven
##33
second
2016
app
regul
##aging
sol
##ert
##GF
44
IL
stat
methods
Co
sym
case
2006
No
prof
chem
##uce
47
##atal
##ished
##plet
##ator
flu
mM
RNA
##67
##ward
Di
dom
without
initi
single
like
##eters
did
nucle
structure
vol
Gr
should
##CC
tissue
##duction
temper
##ison
##AR
##ense
##otic
##cription
Or
Nat
##imal
##plications
##49
about
expos
43
##ior
Dep
##ced
BM
##ai
03
sl
month
##he
network
##ets
##ank
stim
would
fam
2005
##land
treated
##ptom
Pre
antib
##ationship
##oles
##resp
65
findings
reve
##85
##ension
water
##ats
##andom
subs
Inter
##enter
##**
ele
lab
again
Rep
##ables
commun
##verage
##irc
2015
El
56
##ocial
analyz
Me
##round
##ission
Zhang
##tions
##ately
Method
hist
Cancer
you
brain
bacter
contr
##ascular
period
42
##tegr
available
phen
##eric
##itro
characteris
binding
##of
##her
##rr
if
caus
##urs
days
##icient
##ysis
Biol
##AS
range
##87
mal
aut
04
##cent
subj
pattern
##equ
##99
##eration
06
##ters
described
##min
##tributed
##ired
intervention
De
quality
##ergy
phosph
##ao
##ening
Par
week
region
##iting
2004
67
adv
day
HI
therapy
Ass
ret
##oad
##uration
less
##though
2014
multiple
##ulations
primary
relationship
performance
##ules
gu
Phys
##artment
provided
cle
##eck
rati
41
##line
surface
57
##ustr
##hi
##ving
MD
common
att
##ces
##ethyl
surg
02
##AC
##usc
Sur
##app
medi
PD
##plication
Str
49
local
##ised
fil
isol
nan
##utr
SD
Stud
1038
Bl
Further
##omet
negative
##000
Gu
##RI
##ajor
large
children
presence
quan
##owled
hydro
##ouse
random
##Ps
##etes
##erst
fac
activation
##plementary
original
synth
##amp
cardi
##icine
##ince
##atures
58
##agement
##anced
##au
bet
##ances
He
part
direct
against
##tex
support
link
being
96
four
exc
Sc
surv
neur
sk
across
fem
66
environment
PL
Fr
##ynam
##ycl
temperature
conducted
prac
54
##ino
functional
##ource
##lyc
reveal
concentration
various
women
Anal
##ower
85
##entral
improve
##onic
Micro
phase
53
rece
##zym
##ytes
impact
change
##ativ
07
evidence
##ices
##eases
via
##ll
difference
##ochem
##ode
##EM
Immun
##atin
measured
dev
experiments
Trans
sch
##abl
major
Instit
lip
##ask
resistance
before
reduced
MS
mo
analyses
China
my
##asing
strateg
diff
early
virus
section
##89
receptor
Inf
solution
sus
pur
individuals
Ev
Ag
bar
Car
symptom
mi
97
##AP
corresp
terms
current
Not
parameters
##cin
sep
Comp
immune
considered
read
##43
Clin
membr
Eff
##ogene
##OS
indep
experi
##ton
production
compon
medium
##ectr
##66
radi
because
##uit
Science
area
);
.-
99
hel
##ta
several
integr
##tered
Cor
CT
##ensive
##BS
expressed
life
foc
adj
##iol
them
clus
Department
outcomes
pathway
valid
2003
bel
score
59
Chen
52
elect
vs
PM
##AG
differenti
suppor
##rin
##riting
77
##tically
particular
sequence
Liu
##gram
accur
allow
Addition
enc
##io
##ER
Cre
##abetes
1007
ques
according
lear
##ended
complet
##omy
64
molecular
##encing
reaction
indicated
51
manus
journal
down
##32
Cr
characteristics
underst
##mission
%,
##ings
##otherap
##aff
##bers
##itation
compos
result
involved
##ule
possible
##ury
body
signaling
Hu
dependent
degC
##PS
field
dist
confir
AT
est
##ither
Eng
plasm
Rec
ml
chrom
68
69
##ymph
demonstrated
constr
presented
Per
resid
76
strong
dim
Mol
recom
ST
disord
manuscript
general
ratio
free
##emia
circ
##ke
##ronic
##ots
average
provide
##eed
order
AD
##eptid
##red
survival
08
##Cs
98
Cons
##ma
Is
previously
Gl
##ez
max
Psych
72
loss
##ople
weight
##plied
##ored
carb
Sim
months
Met
##atively
##ount
Pol
PCR
##ware
properties
extrac
##ellular
Intern
vacc
sev
known
##eline
##otype
content
polym
##arr
##aps
##ides
many
containing
analyzed
diagnos
Publ
##ST
##42
After
prepar
mix
Supplementary
detection
serv
optim
2000
##ume
##ols
inflammatory
determined
Journal
##roup
repro
More
##53
prol
110
Mod
##oor
social
diagnosis
##56
##57
##AM
63
AM
status
hem
##icity
##abil
responses
nec
86
##ibility
family
##any
##imum
consist
state
##lor
genetic
exhib
additional
HIV
Therefore
transcription
compound
##ient
##ources
food
##onding
##lation
calculated
sex
admin
press
##ids
##ject
nov
eth
cur
Reg
##iving
focus
##etic
mac
##cence
derived
##ld
National
association
behavior
prec
##elial
87
##opl
##ands
formation
position
78
mass
##VID
2002
Dr
mit
].
reduction
ro
##iciency
site
Op
##erative
self
mechanisms
ang
length
Results
##eart
energy
regions
##aking
cop
##ique
62
inhibit
##more
correlation
Inv
##rior
##roscop
##uture
enzym
scre
contrib
##ploy
util
exposure
whether
##itivity
##umm
##ually
##anding
identify
##ulin
contin
revealed
##otherapy
Medicine
##izing
##ried
CR
regard
point
##ler
Our
regulation
os
##ret
##armac
might
##ash
##degC
rates
how
Medical
##ales
Col
COVID
cross
##oz
##ably
gluc
##ibr
##pective
shows
##ists
incub
Mc
death
very
##amin
coh
1371
##AD
##xim
off
##ogenesis
diseases
##opt
mouse
chall
neuro
likely
##enz
##formation
09
pap
images
above
##tice
##sk
CC
##emb
lung
types
scale
proced
genome
##ont
variables
##PI
stage
New
Comm
either
##ani
oxid
##asis
musc
##tality
lymph
relative
breast
73
##ayer
alg
##76
61
step
concentrations
biom
##icense
Methods
pain
AC
datas
##ES
##rich
left
open
##owledge
##valence
88
example
Furthermore
##73
##orld
##urn
##ators
##ours
made
##inc
79
detected
soft
suc
##put
medical
93
##berg
symptoms
sequences
CH
##na
frequency
PC
Sm
.)
##58
liver
training
sites
oper
membrane
separ
learning
systems
independent
##sequ
management
OR
##ector
indicate
2001
##ones
##ird
Mor
given
##istry
##enef
collected
##ackage
people
physical
phot
cm
experimental
dose
cre
ec
DM
ill
##itis
see
hospital
Be
visual
flow
Americ
##obal
##pression
##astic
top
hom
larg
followed
Techn
##ET
ver
##ography
sal
serum
74
##ude
Creative
mediated
Commons
times
adap
IC
features
trial
public
##oints
light
##tinal
##GG
psych
appear
89
surve
comparison
##cep
##ancy
##ocytes
Gene
##resh
electr
##ave
##kn
##odies
ref
##ett
even
refl
interactions
94
##istic
effective
##ends
ul
Des
##ument
AN
doc
chronic
##orith
One
dynam
required
##ecting
Ne
density
resulting
record
##eness
Review
##ising
block
index
mortality
prior
120
##posed
benef
Val
selected
83
assay
71
##ture
defined
least
lines
Qu
pathways
84
establ
contrast
##utes
assessment
decreased
expec
bone
##igr
##ano
##ogenic
right
increasing
active
spectr
liter
##ney
dra
##gn
overall
developed
heter
##aneous
help
##inant
Acad
proble
hand
plant
diet
Inc
PA
fund
ann
Bar
Ed
source
guid
here
##press
##active
does
criter
prev
Ep
ov
categ
1002
Sub
##icult
nm
electro
##ili
Sw
##78
Pati
##ights
novel
SN
S1
##ially
promo
82
##rome
real
cri
tub
displ
better
##rial
##ocy
##ochond
##ographic
back
occurr
##grad
##verse
dam
te
short
##ognitive
##oratory
##imals
##istration
3390
##orb
##enced
##ynd
##clusion
key
percent
##eutic
educ
pair
program
detail
biological
lack
protoc
ER
Es
Although
Institute
(%
mRNA
ax
##ame
##ferences
employ
pH
author
Analysis
countr
##omp
Se
fail
greater
Clinical
dys
##68
domain
highly
AL
##ferred
kg
##ring
corresponding
version
pressure
##ivo
hep
PR
AP
algorith
stimul
peptid
diabetes
Spec
92
Eu
##ertain
##tor
log
##till
Fron
##oS
err
##uffer
##eral
##rix
vitro
##eff
Hospital
sw
##fact
corre
##orn
##SP
file
acute
imaging
injury
influence
AR
##ling
##NF
apopt
surgery
acqu
areas
MC
.;
relev
perm
muscle
report
##opath
fat
SM
##enting
promot
prolif
1111
##emi
Writing
hypoth
include
scores
##59
applied
##74
ability
1186
five
##odes
##read
##eting
81
pul
thus
##Cl
Em
##bial
interest
initial
often
##NE
repe
***
##etal
MM
Moreover
facil
##O2
peak
##clus
strain
##ateral
##plant
Av
methyl
Sciences
cycl
limited
unc
Man
Cont
kin
##ef
##tib
culture
##ycle
##roc
##ason
Thus
antibody
weeks
patterns
Fe
conn
future
load
Compar
##arc
##ipp
final
suggest
processes
pone
Bio
literature
tox
evaluation
Ca
(%)
##ams
##ulf
cellular
##ests
volume
question
##bo
##ij
Fin
##ather
prevalence
determine
##ley
assessed
##BP
metast
##icacy
view
continu
##41
vivo
tra
##cinoma
Material
recent
systematic
High
propor
##orth
0000
##79
ampl
Min
distributed
91
##83
##TT
##ean
cohort
recogn
knowledge
ess
statistical
##pri
success
necess
##ticles
sensitivity
##0000
)-
##63
regression
##..
AS
tests
subst
power
Yang
populations
tested
CS
CM
effec
severe
##OR
SC
instr
##ape
contex
##uble
##irus
consum
remov
##olecular
##iatric
selection
evaluated
##outh
##lying
##oxid
sci
task
approxim
Study
##mitted
subjects
monitor
##ining
decrease
##ussion
Auth
Germ
morph
image
##tial
editing
aim
Bo
##ott
United
community
Kim
however
criteria
reference
##den
les
animals
products
decl
Additionally
##ulate
##EE
##69
##IC
MR
##ygen
##overy
strains
nat
controls
##ella
##ared
software
Europ
play
inhibition
tissues
Statis
cluster
##ems
##ars
outcome
inflammation
glyc
##orph
maintain
##oding
datab
##yg
##aken
System
eng
##eding
##64
synd
cause
fer
End
reduc
##NT
Surg
functions
neurons
##ada
fin
##roduction
##SS
testing
strength
And
##ception
mitochond
iss
##FP
paper
Disc
received
male
##olic
fluores
Lee
subsequ
Microbi
International
plac
##31
combination
generated
consistent
diss
lig
##uz
EC
materials
Nature
Mul
##PA
still
Na
plasma
##terior
Lab
miR
##84
adults
Eth
1093
summ
glucose
##apid
##bl
structures
##care
109
##isher
along
collection
##GA
##pling
ens
heart
accuracy
published
##bs
added
Cal
seg
cycle
events
emerg
contribution
whereas
way
toward
Us
critical
indicating
##ify
address
female
proposed
interp
few
##osome
PP
components
trials
##ession
saf
points
recomm
matrix
AB
go
HR
therapeutic
challeng
compounds
dig
##agen
measures
experiment
##ering
##ground
limit
activities
hum
sil
##ovascular
Af
##ii
implement
##titution
1999
metabolic
If
evolution
##onomic
##VA
migr
Acc
color
Onc
amino
##entially
Bas
versus
Rel
##ye
##itional
##isms
EM
directly
molecules
bacterial
##otal
pregn
##isted
healthy
##itz
cognitive
##epackage
usepackage
distin
application
bro
338
RT
poor
150
Dec
stem
##amine
plants
Path
capac
##72
Wu
Sal
##otid
##brid
impair
mid
##ytic
metabolism
##eph
efficacy
strategies
##ending
infected
essential
damage
Can
Ser
ur
median
##igure
##acts
since
When
With
baseline
Dif
therefore
fit
Ig
##orption
NA
synthesis
SP
##reh
colon
##ynth
wild
##82
fix
setting
##LC
##IP
##omal
arr
##ica
##estinal
clos
>=
##icial
Ma
increases
##ict
##imer
##atter
##esting
fold
practice
nutr
##otor
supported
invas
##erate
##operative
Ec
**
Fl
##OC
Neuros
proportion
antibodies
##omics
DE
NM
##61
##isting
##IR
##otypes
full
##AB
##rolog
##52
context
good
combined
##54
host
confirmed
##inary
mutations
reduce
markers
layer
##alk
intensity
##coh
##eved
##by
absence
rats
differentiation
sequencing
cytok
induc
##hood
progression
relevant
arter
highl
complete
syndrome
Care
leading
So
##to
Ann
significance
reach
tumors
elev
Group
require
secondary
Human
history
Lu
##ections
Exper
pan
##enal
understanding
##tle
administration
indicates
##pir
proliferation
quantit
Front
processing
smok
(-
six
appropri
progn
highest
improved
disorders
s4
PE
##itu
macroph
##pecially
old
##ailability
##anch
controlled
Associ
her
van
meta
CN
quantif
categor
estimated
##ini
oste
particularly
release
Center
linear
carbon
##oids
##osa
##estern
apoptosis
##iang
##92
SA
Control
##otox
PT
Park
star
0001
%),
RA
incidence
showing
rang
##izes
align
plat
##entific
Ge
expected
##occ
investigated
abund
##mann
##urg
##pite
microscop
maximum
yield
##elf
UK
##ele
##agne
bacteria
##II
##ara
HP
examined
measurements
lo
degrad
super
While
##xi
inst
affect
Tre
fraction
especially
mental
document
suggesting
prote
##leep
spati
Attribution
act
Over
IR
isolated
seen
epith
##62
environmental
Mo
Yu
ME
screening
catal
##ulating
variation
cost
enrich
accum
TM
pred
Develop
chann
natural
Based
Mal
ge
##aria
label
##rup
squ
clear
##less
your
global
##elines
##ova
skin
PS
buffer
##ext
cere
facilit
##94
ever
1998
rapid
agg
reproduction
##iological
drugs
incubated
epid
men
adult
Cardi
PI
search
substr
##ana
animal
##astro
##tral
##ements
air
##obacter
##ceptual
survey
therm
Commun
cat
cryst
III
caused
##Med
##olar
##ophil
##que
##tine
carried
chemical
##hes
##sis
altern
##anol
##ura
composition
microbi
##omas
rob
bo
home
s2
##erve
although
side
SE
central
##iability
staining
gas
achi
countries
wid
##ifically
acet
##DNA
den
represents
States
structural
mel
statistically
lipid
protocol
##reshold
IV
affected
##oring
##set
##aged
coeff
suggests
education
##iques
HC
H2
Gre
move
green
##bry
poly
hyper
##itr
approximately
predict
kinase
suggested
experience
AA
near
infections
American
License
Mon
##way
##ologies
profil
##irth
dataset
##rosis
classification
prediction
##ero
##be
##uts
##81
##apan
##ream
WT
enhanced
variable
##roke
##ivery
##inf
##ota
graph
means
##ocyte
Public
##pha
tool
head
viral
designed
1997
third
distance
oxygen
hours
##arily
'-
interventions
##etr
##oler
Germany
##LR
alter
##err
##apping
HD
Molecular
##OD
young
Adv
duration
##oplasm
respond
SS
500
distinct
##BM
capacity
Afric
upon
exclud
online
3D
acids
##ayed
Neurosci
algorithm
##inated
exerc
##usted
appropriate
##51
TR
##ressive
##ope
larger
wide
##ceed
transfer
Patients
##IN
##IS
another
whole
identification
compreh
conserv
##ho
GS
##RNAs
300
cent
JA
percentage
older
##GT
##idney
JM
##uter
failure
Investig
assemb
predicted
##arb
threshold
##ochemical
##esity
linked
Author
Similar
importance
remains
best
depression
IF
##ritis
below
stability
LD
ML
applications
soil
##eli
devi
Sam
Biom
database
produced
efficiency
activated
cruc
##etric
carcinoma
##igg
approved
situ
dos
Japan
MP
Non
##raz
Central
procedure
##opar
frag
fram
Protein
mar
##ges
transf
healthcare
Sec
amount
Sign
obj
##itch
provides
Plant
##function
evaluate
bound
mes
around
##yright
strategy
Yes
clin
studied
cut
CP
call
##ocal
##tre
seed
Food
130
supplement
Mean
dil
Joh
Development
##ula
phosphory
oral
##otion
##int
##me
##anes
ultr
Cu
much
##opro
SR
##hao
##tivation
error
##tiveness
blue
hy
decision
##clusions
Os
Xu
comm
##ype
##dom
##tricted
measurement
receptors
First
mutant
##wn
##monary
established
##obl
##anning
Total
component
Det
relatively
inhibitor
Materials
NF
match
rev
Nutr
US
MH
##bre
Chin
DC
approaches
prop
por
##agnetic
##LA
detect
cardiac
mitochondrial
able
regulated
Statistical
NC
##IT
##ico
##ieve
insulin
##100
##mentation
recr
##yro
TB
action
Model
polymer
##uv
MT
recorded
Ol
don
diagnostic
##bio
place
##asts
Red
DR
bio
##enn
CF
embry
105
European
spect
Discussion
##co
##atch
making
delivery
techniques
##odium
##ato
They
agre
needed
##arl
##cohol
respir
cann
DA
Neuro
generation
world
##ime
deep
##osomes
degree
discuss
Coll
cho
suppress
Cells
crucial
enzyme
school
hypert
students
thick
direction
Stat
##amb
##sh
Using
pros
##encies
memory
diversity
services
##tives
SH
endoth
106
BC
nature
##we
regarding
##iology
hal
Finally
treatments
##MS
##gin
##icular
spatial
surgical
##EC
##atics
##ostic
##argeting
Ob
relationships
##umin
##era
stimulation
what
wash
publication
##itrogen
##ticip
##aily
ES
bias
Lin
networks
3389
disorder
secre
attention
prepared
##orts
Huang
##ench
vascular
internal
product
grid
neural
mutation
difficult
PBS
##urse
##ancre
##elling
pm
PLoS
##orpor
NH
continuous
##duce
##ufact
##omer
ster
transition
##ds
must
##ophag
##aces
##wise
##poral
Fund
lic
##ework
##ham
Organ
##gl
Del
exhibited
##91
##ighted
##td
having
Struct
bur
correlated
##ometry
LC
magn
contact
necessary
though
##andid
##thers
##AA
taken
consent
oxidative
biomark
Microbiol
certain
characterized
degradation
assum
##isition
draft
variants
##ophys
sleep
Experim
School
##ceptib
mainly
overl
pass
##ON
plot
##aring
##apl
Austr
dimension
shif
##ama
Disease
regulatory
Rob
1996
##akes
1000
Pharmac
validation
South
Ak
##oto
numbers
lys
Ox
barri
Age
GC
003
##roduc
employed
TC
peptide
Access
##idity
##eb
##try
##oster
intrac
adapt
members
ED
##xiety
interests
Pa
##urb
Anti
Id
inhibitors
broad
<=
resistant
chain
series
##ceived
Sa
Information
##sp
contribute
aspec
Soci
PMID
##UR
involve
020
Open
bu
##ometric
rather
cred
##120
##awa
GP
feed
signals
##gramm
##SCs
safety
exercise
nuclear
##aves
Effect
##ires
polic
resolution
tog
MB
##lin
investigation
##ydr
enhanc
CL
every
References
TNF
prevent
##angu
cardiovascular
Proc
##atives
Mac
investigate
##dle
coli
NS
##aster
San
together
##ediatric
potentially
mixed
fluorescence
##normal
002
heat
107
dynamics
##ira
monitoring
consequ
##etry
Kr
ij
rat
1995
Two
space
vaccine
119
108
##trans
Biology
ID
##pr
guidelines
##oscop
alone
##li
diam
preparation
HA
soci
Immunol
Nan
axis
onset
origin
##uting
By
adoles
comple
Martin
mamm
SL
reason
##MA
##aternal
##tile
vector
Child
##/-
Chang
##osts
Eur
manufact
104
Hyp
las
coord
##aries
BMI
successful
PF
La
center
daily
subsequent
Ni
##ils
transcript
Other
S2
##07
media
##eless
Sun
##mitte
##medi
Found
permits
C2
targets
Zhao
##ynthesis
019
##seud
##aim
##ford
profile
feature
1021
enhance
tw
BMC
Vis
##GC
##ka
extracted
fixed
white
SAR
eas
C3
##use
transl
cou
substan
##OL
##rown
problem
transport
consumption
arch
ion
susceptib
make
##cted
##formed
paras
NR
institution
elements
##alian
fibro
##EN
stable
##off
Sil
##ened
last
##ee
lesions
technique
##ogenous
angi
World
until
extraction
const
antigen
005
stages
challenges
reducing
marker
JC
od
##ran
Soc
exposed
John
illustr
birth
NP
##umn
##osomal
Pe
gender
##ipher
##ineering
##erex
obesity
Kh
125
acquisition
kidney
motor
curr
room
##esth
nanopar
Wil
##itude
randomized
##05
pregnancy
special
##ologic
check
transmission
##ufficient
resulted
confirm
gut
conver
quantitative
Cop
C1
##iable
aged
##ski
##cium
##stream
BA
##otechn
##iao
##de
solid
macrophages
developing
According
sensitive
##ious
profession
curve
%.
epithelial
##ike
##01
##ococc
dysfunction
modified
aden
chlor
effectiveness
renal
##onia
resources
unique
##naire
##LI
phyl
PH
##ades
##ternal
##terol
103
AI
run
##alm
complications
stroke
recomb
genomic
##ED
endothelial
comprehensive
##xt
##biotic
Dev
reports
glut
Ber
great
Zhou
CB
divers
respiratory
heterogene
Effects
##cher
slight
##TA
problems
##ki
##neum
##romb
##crip
event
adjusted
location
underlying
inn
phenotype
beta
ng
##ariate
bond
Num
Association
##isation
incorpor
double
##andemic
elevated
##ycin
interview
Among
enti
Additional
##ban
AF
Ltd
##inson
limitations
Technology
injection
MI
induction
Each
underg
others
CV
##illi
cover
##mittee
##ients
incl
##istered
##OX
##PD
fung
Character
upper
Since
022
t00
WH
1080
Foundation
From
optimal
improvement
##elet
Exp
project
Biochem
##ald
##lege
abnormal
framework
repl
##ishing
Chinese
Vari
Curr
##raf
meth
advanced
##eti
018
laboratory
accumulation
BR
concern
hous
targeting
females
##ives
interpret
gel
##OVA
vary
##otide
bal
probability
targeted
##kin
tumour
##plantation
##ully
achieved
construc
toler
declare
domains
Si
migration
##ceptualization
leads
##Table
Pan
procedures
##ush
coron
basis
##UC
##itin
account
avoid
causes
##ying
personal
antioxid
##02
Up
alternative
intake
##ote
she
##rh
core
pancre
tools
##pled
Drug
##03
Environ
humans
wall
Brain
extract
##bal
severity
located
##icle
##ectal
Ha
##ively
input
alcohol
##oration
miss
upreg
moderate
alpha
disp
rad
Second
Ang
Cent
confidence
technology
malign
Appl
correspond
##ogl
wr
specim
##irect
later
##Vs
##ps
##aki
pharmac
leuk
##ident
leg
HS
Spring
hybrid
assign
needs
contributions
providing
sampling
DS
##ram
Pat
##eling
##agg
##timicro
pig
mach
##arian
##ventional
##bral
##icians
profiles
repair
##06
##inity
license
advant
MRI
anxiety
bios
panel
Radi
towards
equal
##ipheral
mechanical
##ancial
Differ
##ered
tail
datasets
questions
div
Note
horm
AK
physiological
MJ
interval
Western
atom
hypothesis
Van
turn
imm
##GFR
##olesterol
##ocard
##DM
##ancers
recovery
males
rh
004
substrate
RS
pulmonary
T2
Long
Treatment
ams
assays
pmc
promote
replic
Natl
parameter
chemotherapy
longer
##iro
spectrum
##oul
pandemic
agents
follows
fatty
##ows
defin
##ori
%).
##aditional
##olved
emotion
MDPI
metal
##ya
Epid
induce
cortex
##oinform
))
sulf
intestinal
Bre
electron
Zhu
##knowled
Life
thank
BD
knock
weak
recommend
mob
sources
neutral
states
Educ
##oral
terminal
depos
mill
occur
HF
g00
grade
##rief
##itud
Physiol
adverse
##enic
Nucle
##enous
cited
rs
famil
Available
##gg
##emat
hydrox
##TR
annot
##ises
residues
fully
Ram
sections
cannot
##truct
##anguage
confl
##acch
Lim
##thritis
##nt
##SO
ensure
fract
##yth
Ital
Investigation
Mat
unit
contained
specificity
depend
prost
centr
noted
Both
majority
MO
divid
##oing
1097
Genet
base
400
C4
specifically
##asp
robust
contains
##osen
course
##IF
clusters
HE
##ita
external
118
023
aggreg
##back
conj
accept
CD4
NE
promoter
next
115
Low
FA
cultured
irr
##inate
Oncol
smoking
##ema
half
isolates
TH
bp
GFP
exist
##arv
##entioned
Vi
##group
##atitis
010
muc
Introduction
ste
edu
deviation
s415
pp
##ality
sets
##mediate
phosphorylation
Hep
lit
##ember
estimates
##abetic
C6
column
Function
HM
ach
adhes
##ida
117
radiation
mmol
s00
pool
Particip
SARS
Dav
Sens
background
prevention
##B1
reproduc
abundance
lat
dynamic
useful
root
Hz
liqu
SEM
GA
constant
introduc
led
##ogenetic
writing
associations
##ito
excluded
CE
##08
##oot
##yroid
##inger
roles
date
102
sustain
applic
recently
mode
fluid
014
Scale
##04
offer
016
produce
items
particles
isch
##RT
101
speed
##olds
numer
IP
RP
ms
aer
Du
##tices
focused
During
##ea
person
##bor
##ifest
adip
systemic
Of
candid
Acta
VE
RE
DL
##isons
forms
006
platform
##ords
##east
CoV
Tan
overex
Sig
chromosome
##uma
examination
coefficient
216
Fu
Mater
enzymes
##knowledg
##BC
nanoparticles
ATP
ANOVA
Er
##09
nam
estimate
Conceptualization
demonstrate
implementation
Methodology
temporal
My
TP
ONE
Ts
calcium
Cam
band
1994
##Gs
TA
##ectivity
note
##rospective
unres
dietary
(+
##thern
017
availability
du
tax
nurs
##ematic
##TC
removed
##iatry
Editor
##overn
##FA
GO
placed
sensor
iron
##enes
126
##elli
Kn
Pers
blot
microbial
Here
##tra
##biotics
find
extre
021
##uck
understand
Multi
##iral
rot
disrup
Jun
##idation
Some
polar
##organ
responsible
orth
C5
##ptake
black
diverse
##itamin
living
flex
subt
generally
represented
rich
##most
magnetic
reactions
##ocamp
efficient
##esized
Sol
variance
Engl
past
Do
lateral
simple
##ba
Coun
IM
Society
##ordance
emb
la
biop
##known
##A1
Post
trigg
commonly
achieve
pneum
grad
##tious
autom
hab
##LD
##oxic
existing
210
IFN
motif
Out
Therm
Pharm
repeated
##acement
##O3
Quan
Und
financial
enter
Jan
Click
##IM
rank
detailed
melan
tend
##OM
hydrogen
##Figure
peripheral
1993
##gricult
Lond
poll
##enge
##ervision
##ocation
map
expressing
option
],
commerc
##uctions
##heum
##itative
AG
##chem
##mark
ROS
##OP
depth
recognition
##istent
throughout
characterization
Arab
##ocr
##200
mixture
intracellular
si
smaller
plate
thickness
hyd
##oli
thereby
polymorph
insights
Blood
012
##abb
LM
communication
diameter
compr
##incip
##ergic
##ylation
issues
Smith
informed
working
perception
##ippocamp
Press
Article
Arch
College
cytokines
Assess
Laboratory
##genic
Comparison
correct
Conclusions
##estingly
##ifug
IgG
##att
gran
##LS
LA
May
implications
behaviour
##enza
024
H3
AJ
perf
Back
strongly
##tration
CO2
widely
joint
Springer
##ealing
late
##ersion
113
Qual
hypertension
close
Ref
DP
force
015
minutes
contributed
##oprotein
metastasis
PK
Ho
GR
##timicrobial
HB
##avel
middle
som
##lands
HT
007
DH
##ocl
ca
##iton
uptake
##acchar
observation
ple
Studies
Su
Scientific
##ocyt
diagnosed
restric
Identif
Alz
minim
involving
exhibit
128
##iform
##went
Ba
adher
methylation
liquid
neuronal
satis
FD
Fac
his
##enari
##itiz
questionnaire
conventional
##utroph
##eme
Sel
Similarly
##istance
cancers
licence
intern
Prim
variability
comparing
##ifications
Ti
tel
channel
lay
aspects
fish
includes
250
burden
become
sodium
##tially
molecule
movement
You
height
funding
##ibrary
Diagn
GM
requires
##NP
##cal
##ortic
olig
011
##aptic
##ills
123
Expression
microbiota
stained
org
medic
researchers
Genome
mol
prognosis
differential
##tility
fav
orient
marked
curation
Jiang
116
simulation
benefits
##ogens
language
##oinformatics
minimal
Hist
transcriptional
Bur
coding
usually
extracellular
Aut
Ste
##rig
Interestingly
BP
suit
oil
allows
extent
clim
##eletal
##ette
112
invasive
RR
##ensus
Key
unrestricted
111
##oo
1H
cultures
##ral
##Fs
##BD
Despite
washed
involvement
Infect
Evalu
##agon
Sl
##amide
trend
214
occurred
subject
Resp
s12
artery
mil
onc
Biotechn
##ureus
text
formed
##uls
N1
utilized
1992
Bel
toxicity
competing
device
observations
nor
lact
reconstr
Sant
antioxidant
traditional
Diabetes
spectra
angle
own
Sever
families
maternal
industr
##iller
##cents
Alzhe
statement
bind
217
##trac
assembly
box
114
Overall
curves
##yan
vess
CK
013
remaining
compare
Ver
##ectric
##inations
-/-
##resent
##ena
##ways
Imp
##hal
variant
now
##ectious
BL
rib
##uary
Project
mild
settings
##hydro
Ul
thermal
su
##let
organic
science
costs
referred
effectively
occurs
##ococcus
NK
pairs
categories
national
##opathy
127
Lip
details
Most
SV
##TS
##ister
##ads
##IG
primarily
replication
180
1990
##portun
GL
CD8
##ola
programm
OS
comparisons
refer
posterior
done
Bios
##umar
##ultaneous
output
##down
labeled
##ensis
constit
North
tree
##ophagy
008
Ethics
121
inclusion
##oper
C7
Type
Fact
##OH
morphology
bott
arrow
properly
Cyt
RM
yet
malaria
predictive
##emp
Ah
manufactur
figure
Cryst
cholesterol
Meas
Psychiatry
MG
JP
Zn
phosphate
classified
##crim
occurrence
issue
##obic
inser
representative
frequently
##oxide
hippocamp
dimensional
shape
SF
##icts
##ria
permitted
##umor
IN
track
Then
medicine
Prot
##ested
incubation
minimum
eye
vaccination
remain
put
ir
complexes
Follow
Univers
TE
Mechan
##za
node
fusion
Nor
fibrobl
##yle
posi
##war
ventr
##PK
emph
slightly
Statement
##ump
Sing
##rology
##enk
##umab
wound
microscopy
Bacter
theory
generate
##iness
metabolites
explore
conserved
Green
economic
biomarkers
##ectomy
comput
1b
aging
##plicated
##habil
##gu
hepat
Cho
income
Han
contain
supporting
##ament
element
Africa
##IL
coronary
124
mutants
219
##US
##cler
##itten
promotes
induces
scenari
##kal
centrifug
rest
215
Fer
##ply
progress
##iatr
C8
DD
##oni
America
##rep
adaptation
challenge
Committee
FL
plays
Funding
divided
##ellow
Hum
units
##overed
PV
prin
WHO
Fisher
How
interv
##ready
##ester
##TP
au
Te
ND
myel
anterior
filter
London
participant
reverse
except
typically
##urrence
improving
Global
dele
subun
seven
##itzer
predom
S3
##ounts
ves
almost
##110
wave
##otrop
Social
earl
face
OH
##ender
Pos
##faces
begin
nodes
##orage
Bec
##pose
variety
peptides
Therap
alb
buil
Kar
accurate
agreement
myocard
RF
##position
dop
Pop
EP
Sha
Another
iso
##tenu
ads
instructions
PG
steps
Sigma
deriv
already
entire
##emiology
laser
digital
displayed
Heart
relation
proj
##anth
##ima
122
Prov
##tead
."
list
unknown
optical
NO
N2
##icles
##itudinal
rare
Alzheimer
gradi
interpretation
ligand
Nov
traits
Time
susp
160
129
accessed
currently
140
##izations
allowed
Mi
##alia
##immun
normalized
##osh
fiber
##eman
Experimental
##abilities
prospective
JL
inhibitory
##osin
##ado
##BI
variations
##raft
methodology
nitrogen
Lanc
attach
mentioned
##illus
##ala
##inking
C9
integrated
India
##imm
diabetic
##activity
Circ
Dem
Equ
spl
sufficient
##mic
eight
NI
behavioral
##arch
count
actin
sectional
SNPs
team
summar
York
reviewed
##eles
bars
##P1
fibrosis
communities
##TM
selective
choice
UV
Risk
accordance
Ta
odds
loop
plastic
##sen
Ru
##alc
prostate
accel
##oglob
far
opportun
##).
tom
ultras
##aling
##version
cytotox
adop
mis
elim
sph
##utive
Rod
##130
administered
##ofil
infil
##asons
220
Tur
balance
benefit
##umb
Tak
##erson
prognostic
heterogeneity
IS
noise
artif
claim
T1
counter
appar
##ectin
localization
Mel
auto
secretion
##allel
Acknowledg
despite
applicable
##fs
acquired
norm
wind
upd
establish
##unn
identi
enriched
",
summary
cul
experienced
service
genotype
take
ranging
TGF
Shi
S0
Canada
##elihood
nerve
##ky
attributed
psychological
solutions
Case
reflect
marg
Rad
##ards
let
pyr
Participants
LS
sizes
Serv
uns
organization
gain
regulate
Cas
policy
155
MF
definition
manufacturer
##lear
invasion
adolescents
dark
give
##onucle
##omb
perceived
programs
##ontal
Braz
009
occup
commercial
Coh
##ze
Ro
intra
stimuli
satisf
correlations
##unc
##ashi
spread
practices
##pan
branch
regulates
##illary
objective
sexual
coverage
Ped
editor
remained
rou
##K1
driven
explained
explain
##erb
staff
conjug
O2
reporting
enrichment
##phal
C10
##),
##luores
subgroup
comparable
examine
Patient
##cles
doses
##aceu
##ensions
discrim
behaviors
promoting
urban
##ercul
allele
break
integration
Environment
recruit
ant
probe
Plasm
##NC
General
cortical
protection
EE
##inus
##biqu
1177
excess
promising
Au
plates
Lett
tit
reactive
reson
,"
machine
fron
##icul
valu
instance
##ervical
hemat
Respons
##onn
copy
ratios
Bu
##ozyg
##ami
Gal
p53
ask
##zi
Ther
statistics
LV
##PR
##ocrin
emotional
maps
manner
separate
Previous
bil
recommended
Lancet
ra
##Is
alterations
##ectors
Italy
##hen
illness
sat
otherwise
pancreatic
princip
suitable
Ca2
specimens
mapping
##va
carri
approval
workers
attenu
algorithms
respect
conv
Mich
cycles
impairment
Psychol
thromb
barrier
##eneration
parents
SW
Number
##PL
partial
agent
independ
math
complement
tolerance
',
neutroph
maintained
appears
removal
Pot
Background
##_Table
##T1
Program
immunity
##enchym
##tingu
CX
considering
viruses
TS
clearly
Kore
Chr
leaf
Ben
##rocytes
clinic
JS
##ermat
Gh
##140
little
neigh
Copyright
transpor
Cd
stabil
Metabol
##ivalent
##ocar
##otes
susceptibility
cod
Vol
Switzer
##itect
devices
Sequ
##TL
Mass
Beh
##atus
##oon
##itors
computed
cleav
Mic
volt
##ares
encoding
145
simultaneous
Several
218
##sw
LPS
Switzerland
170
##idine
intervals
protective
CG
Mark
##isions
substantial
vul
Soft
135
Given
Bro
Four
possibility
adhesion
minor
Ga
163
White
##ynamic
##oscler
collagen
called
asym
Bal
##alling
2D
discussed
downreg
CY
##itus
##HD
IQ
Natural
regular
pseud
introduced
Guo
##cripts
receiving
Predic
slow
##itory
estimation
Incre
qualitative
##wan
earlier
primers
errors
##EEE
Basel
channels
reads
Evaluation
King
##rogen
##ips
tract
Conclusion
grown
absorption
##rs
Mg
##ners
shift
medication
underwent
Three
basal
correction
##eget
start
plots
segment
##asting
##HA
IEEE
gastric
211
polyp
cDNA
##come
##ologous
1991
fill
true
regulating
vel
experiences
DF
##wide
pn
AID
deliver
cytokine
copyright
users
##aceae
##Es
##entia
genomes
Franc
Bay
deficiency
##aine
##osk
lowest
characteristic
##osity
articles
##ooth
##okine
colorectal
aimed
oxide
Use
ethn
expect
212
affects
Australia
TF
plan
nucleotide
reliability
electronic
altered
Fem
His
Tri
##itals
Class
Formal
Because
feedback
lesion
##ora
App
matter
##idal
##ryth
storage
##BL
presentation
##NS
##ernand
##ostasis
Comput
EA
##F1
##rog
phenomen
perspective
cytoplasm
##ypt
##aa
##asia
##tition
reduces
-(
germ
kB
outs
expans
1128
tasks
Hol
##ibration
antimicrobial
##RS
mus
modification
##orac
Inhib
##iring
)]
fresh
distingu
SJ
ethanol
basic
inoc
missing
harm
completed
##olute
miRNA
modeling
infer
147
Validation
membranes
213
scientific
Gastro
##dominal
STAT
typical
influenced
govern
##eased
##atib
Centre
gastro
disch
sti
belong
ground
subsequently
##ided
veh
superior
stored
pathogen
once
Go
Mur
transfected
##N1
Diseases
adjust
display
DJ
pathogenesis
nar
likelihood
Academic
##opsis
just
##tenance
Sn
##vey
##roscopy
plus
BioMed
##erculosis
TG
##ks
hard
SU
solv
##ernat
Brazil
C11
RD
yeast
positively
switch
visit
shap
diag
##oxia
##omon
Aff
postoperative
##urity
175
##eep
closely
subc
NMR
##treated
positions
RC
##aker
##ulty
##ometer
predominant
similarity
##thma
transform
Polym
##ls
Ku
alignment
Def
flav
Camp
arm
identity
retin
State
viability
Identification
ovarian
ve
sn
vitamin
motion
Work
pneumonia
fast
##ille
subjected
nerv
SI
##gue
##cape
C12
Cheng
chosen
##avirus
##aka
146
##yes
L1
Tor
##rea
##eta
##ropath
country
modul
Confl
ter
Organization
intell
Disord
identifying
Never
Visual
Yan
crystall
inhibits
##phth
extracts
##amily
metastatic
spinal
##ehyd
##vironments
ray
##point
assigned
##for
##lo
interface
SK
protocols
##iction
crystal
fluor
##itt
ubiqu
antibiotic
micros
multiv
Elect
cerebral
recurrence
##rological
SNP
m2
reag
layers
househ
spor
##esthes
##ifying
##uchi
shared
##H2
irradi
Emerg
##aper
enhancing
compl
participate
Max
perme
##GS
concept
LR
metric
nucleus
Mil
retrospective
influenza
purified
reveals
Chi
##atif
oc
Animal
Mem
JR
##ibly
Qi
cys
Network
Following
1073
##arth
##theless
##han
...
EB
analysed
##amic
Rh
residual
##ione
kine
representation
rural
Jul
affecting
oxidation
GD
parallel
explan
##ublic
Sex
##ias
leaves
enrol
350
conclud
##nee
##eas
Pharmacol
##orrh
TLR
facilitate
320
Pub
gli
##PCR
##illance
revers
Gao
involves
adequ
sensors
kit
therapies
myocardial
Assessment
Male
Pal
isolation
African
Har
square
Sk
created
Ham
grant
ten
##oxyl
SB
##otypic
BY
Nak
1136
Yam
##Ds
JH
dry
category
million
yellow
##oriz
aud
Endocrin
vide
030
DO
longitudinal
##unct
133
##yond
Mut
##habilitation
milk
Zheng
gap
sharing
impl
##olip
solely
beyond
310
West
##tract
##rec
biology
package
veloc
hormone
Oct
extrem
varying
##alse
Education
##oming
malignant
growing
gradient
indicators
Corresp
##ela
Hydro
Ger
drop
habit
##EA
Subsequ
thre
validated
exact
##inn
cervical
Section
##apse
sed
pathogens
H1
teach
##eat
ast
clustering
fed
requirements
##ceedings
##oretical
##hai
exch
##HC
##hu
temperatures
impaired
Brown
##elium
peaks
JE
Integr
developmental
environments
simulations
ps
##K2
climate
Her
plasmid
##heumat
##pected
particle
onto
endogenous
sum
##adder
reached
Publisher
Current
wors
code
supernat
tube
indirect
amplification
stimulus
ble
##mer
##ospitals
initiation
March
diffusion
179
##unt
cov
defects
seq
Role
cold
Dat
recruitment
deletion
depending
spe
maintenance
beneficial
valuable
pack
Prof
##ifer
FC
##ogs
purpose
##apped
Notably
##abor
FM
Recent
candidate
anat
##uments
user
miRNAs
MN
Ka
jc
##derly
toxic
Black
##adian
Chemical
1a
decline
formal
FT
Gi
##arcia
Swed
##ander
Orth
Engineering
##oblast
table
PO
JJ
frequencies
analyze
credit
##fort
demographic
extensive
implemented
But
surround
137
downstream
157
KE
risks
participation
differentially
know
Kit
##abric
explored
complexity
smooth
Mu
precurs
##acco
extended
carry
Surgery
##ovirus
##uous
trained
KO
recommendations
veget
R2
Ald
pathological
RJ
expansion
##ontaneous
dend
AH
156
##103
SG
bottom
##rophic
fig
##acr
describe
Biomed
conclusion
har
##org
##idae
##ogram
decreases
##max
Behavi
dors
loading
##da
viol
##eva
adherence
Mad
##LE
##aryng
injected
Garcia
overexpression
##aid
exceed
neon
scan
randomly
amyl
VEGF
##acting
Willi
composite
placebo
##iance
FR
supplementary
##rowth
uncertain
inhibited
##yo
technical
farm
splic
##iff
unl
array
Wei
AUC
zero
##yte
eryth
voltage
600
165
France
Indeed
##iaz
##bell
##igen
##anded
description
Also
Form
Lo
cis
1126
microgl
determination
prox
forward
UC
##dis
separated
##theroscler
transferred
##ulatory
Ill
##erts
##night
##105
Bon
feeding
Due
##P2
Cap
assessing
hepatic
recombinant
spectrom
##ancies
measuring
capture
bul
whose
preserv
dual
Proceedings
completely
Tra
resource
consensus
136
transformation
socio
##tivated
131
##IA
ions
Oral
HPV
177
architect
##pati
##trial
##brevi
always
Only
Song
constructed
infants
##etti
190
Process
records
Sym
##Th
written
##amination
purch
##orter
##time
##icients
Gon
salt
Electr
taking
stimulated
institutional
##ohist
##ecutive
##P3
translation
acad
Myc
Such
Signific
##phthalm
reasons
parts
respective
PET
antibiotics
Tang
regim
##onin
Primary
##illin
trends
##R1
Moh
##iae
phenotypes
TD
equation
##ehyde
Standard
##olysis
affinity
##rophy
Alex
153
thyroid
priv
##ypes
##L1
advantage
fetal
primer
neck
biofil
139
##urine
DG
independently
BF
Appro
##--
transcripts
hydrog
periods
138
fragment
0004
recru
Functional
##erman
##antly
Neg
##amber
transplantation
ELI
regional
##la
classes
##ional
pnas
##aspase
autophagy
Test
##eno
aver
heav
##oscopic
walk
optimization
weighted
##olin
##rete
##enia
processed
healing
Prom
discovery
capt
absolute
C13
TT
Graph
seems
egg
##intestinal
##utaneous
##itig
attit
##005
##enchymal
format
##erse
##acillus
##anted
Ke
BS
rabb
GE
cam
CSF
charge
Nevertheless
competi
Phot
DN
Rich
##ibri
Mann
pediatric
Conc
conflict
Institution
##ighting
##uan
dominant
intermediate
##yros
134
132
-,
ventricular
Supervision
##actic
quantification
Suppor
recip
latter
Consequ
cath
##iph
evolutionary
ring
glass
emphas
Aug
176
##aced
##used
feas
##ophila
Genes
discussion
embed
026
##igene
185
##idopsis
143
pip
representing
AE
Fre
Acids
##amma
coupled
##ptosis
Ur
Lev
##OT
Thermo
JD
er
quantified
equivalent
##olding
##well
##arities
167
attrib
etc
dementia
##chron
##luorescence
##iel
da
##oxy
##zen
round
##lar
producing
innov
Trends
antagon
chromat
Competing
CRC
fall
radical
hour
##Ns
modifications
phylogenetic
##inter
myc
successfully
RL
HLA
cord
##acet
##plate
##olytic
prolong
abdominal
Abs
technologies
respondents
##mail
F2
answ
fibers
1989
PubMed
presents
coefficients
supplemented
##weight
opin
validity
allowing
Wat
Genetic
323
numerous
##owski
dental
What
progen
##sin
film
atoms
resonance
315
##erated
frequent
Cat
IQR
##leuk
158
##istics
look
matched
O1
consequences
microscope
##luor
meaning
++
iden
discl
EF
##zo
##rick
##insic
Arabidopsis
blind
member
circum
directed
##opic
Imaging
##igible
overnight
Biological
varied
synthesized
signs
##ochemistry
conversion
precision
Neurol
Tem
C14
starting
counts
##asal
NY
159
##ecal
186
Nether
synaptic
publications
mT
actual
carcin
##ona
##acted
loci
##posite
qPCR
mail
##Ms
319
elderly
pen
locations
.);
168
RB
hapl
recording
clinically
##transfer
Inn
Impro
##cribed
##O4
##avity
##omm
cer
nM
professionals
##di
reliable
stre
live
negatively
Quality
##des
peer
Shang
hydroph
get
Rem
fruit
Math
thin
absorb
Netherlands
saline
##mediat
CJ
S4
acs
Multiple
modulation
##issions
##inder
anth
Software
##mediately
fields
fibroblasts
Physical
false
genotypes
)/
instead
prem
##arin
##aste
assumption
asthma
##acent
concerns
##array
##PC
velocity
Single
outside
##iger
mov
ELISA
highlighted
Mun
sensory
##Rs
locus
##oa
rice
##ernandez
173
synthetic
twice
property
raw
comparative
shock
impacts
separation
Female
cir
##ognition
width
169
tumours
##ued
##valent
pathology
Hel
parent
##udes
Berg
Mit
##anda
Children
##cil
##ermal
166
Ple
(>
025
enhances
GW
crop
##activation
317
distributions
upregulated
fracture
##earing
ultrasound
ii
mostly
homeostasis
asc
Diet
item
Energy
amounts
##EL
agar
Rodrig
027
EV
accep
tuberculosis
##nc
rapidly
uniform
morb
Technol
construct
NT
identical
Europe
delay
computational
MW
aureus
efforts
Specifically
Tiss
Resources
##ensities
##ril
##rot
barriers
##ellent
PJ
##ska
Lear
probably
##rote
international
RG
##yb
Genetics
hospitals
amplitude
Carb
##ectively
178
Dros
hold
Syn
##ticular
comorb
listed
McC
PB
OD
interact
stratif
electrode
37degC
Initi
##atigue
Image
##water
native
174
DT
Pf
AIDS
connected
deaths
Ko
##ritic
##acial
##oman
316
Sus
admission
Jones
causing
inters
##gricultural
knee
1988
##EF
module
144
##ift
Oh
rod
seek
Bor
morphological
acetyl
##rinary
##urance
##ucid
##essions
pathogenic
NPs
KM
##mb
biosynthesis
reproductive
##tual
##iment
utilization
predicting
kind
Wol
##AGE
recognized
##uvant
Design
mitig
Johnson
spontaneous
##ulose
adaptive
gest
dilution
Jin
##ago
##rought
GH
##ocrine
appeared
##aints
multic
academic
antic
waste
goal
Pere
##enin
)=
logistic
##lammatory
##RA
Consequently
mammalian
##uits
emission
##ped
Faculty
##DA
deficient
clar
##ovine
##tress
return
Future
edge
HCC
##DH
Hence
##ION
Saf
initially
practical
141
DI
##emy
Abd
Systems
Lang
Board
phases
suppression
164
Respir
chromatin
Early
contributes
degen
##lated
electroph
serve
computer
Brief
Tumor
##ker
149
skills
Off
partially
create
MY
OA
licensee
##ondence
##ait
traj
sensing
pow
##uez
Phil
defic
##cill
##inement
soluble
SDS
##104
##leukin
Wal
##ington
conduct
Po
##ichia
predictors
uses
##106
pil
interfer
FS
operation
##ded
Bh
##chi
Den
Hong
##onym
238
##raw
zone
Structure
Subsequently
##itting
ns
##izoph
polymerase
lob
##203
asked
SY
makes
precip
retinal
seem
##ulence
physic
funded
vehicle
##orous
##plicate
Lop
Pear
sense
##hou
Paul
Pt
inher
plane
epis
##bach
##onom
donor
C15
##idge
theoretical
adsorption
Cost
Reference
##ady
##uel
LL
childhood
subunit
Kle
Fil
##illa
unclear
Nucleic
reconstruction
ech
fluorescent
Impact
Stre
##ytical
##ilities
scler
mell
205
stop
##PH
##rane
##N2
diverg
repeat
Next
##arding
scaff
##FC
##osine
Chemistry
fragments
RO
Leu
Ros
marrow
vaccines
infr
receive
Environmental
Availability
152
Parkinson
planning
##aran
Correl
Ok
Kl
##pectives
##tructure
land
transgenic
apoptotic
Young
Institutional
aj
na
##oud
fungal
##osystem
RN
Supporting
BB
predictions
nine
histone
moth
313
agon
accomp
TN
resection
327
##acing
infar
changed
##arum
forming
largely
consists
standardized
macrophage
infectious
credited
immediately
##plete
too
mA
OP
dimensions
##ohydr
Bioinformatics
screen
exchange
##ories
nervous
Influ
Drosophila
Authors
##ovic
ACS
VA
unless
accoun
##outhern
professional
##ga
diges
magnitude
limitation
skeletal
##cipl
favor
Water
larv
foot
config
thought
Nag
isoform
necrosis
documented
MMP
organisms
orientation
195
##ca
##queous
inhibiting
Hall
##omonas
Singh
discharge
Biophys
Mah
analog
subset
benz
Ir
".
educational
##lip
junction
possibly
retri
trauma
Compared
supplementation
KA
##che
##arn
PLOS
##ji
restricted
genus
guide
Self
Prote
Part
1471
sperm
Francis
January
##class
142
chick
148
ent
GF
horiz
hypoxia
##breviations
##This
FE
Calif
easily
Management
##ei
##elt
surveillance
NaCl
318
Spain
Ren
challenging
contributing
extension
Represent
dL
##Res
careg
intrav
Phase
diluted
possess
siRNA
Pi
##entin
visualization
artificial
arthritis
simulated
##wareness
Top
324
maintaining
Detection
tetr
##inants
files
HL
##arged
organs
##path
library
C16
##ja
326
Az
melanoma
emergency
biochemical
##150
##tification
pla
##infor
composed
wt
##vis
Behav
integrity
##aud
MK
(<
evaluating
words
Kumar
untreated
physicians
##iciently
1987
Response
harves
##versely
154
322
fa
affili
##oglobin
rise
##itol
Gastroenter
putative
accepted
Pur
##ello
occurring
Comb
##acu
Evidence
clon
##ophage
##asi
distal
RH
pregnant
treat
English
Shen
##angl
##elle
standards
remod
ma
cn
##osqu
embryos
replicates
##esthesia
##oside
##ilep
293
##TG
situation
Korea
##ensen
##RD
cleavage
remove
elucid
##environment
satisfaction
interpre
##bc
visible
surfaces
Internet
##oline
Ministry
object
neuron
mitochondria
Mn
##poses
##organisms
deposition
Under
Wall
JW
consisted
largest
325
JB
released
Mid
Cle
##eller
biopsy
foods
##arcoma
##onomy
entry
instrument
Vacc
Chronic
##abe
undergoing
vulner
187
##break
F1
183
Div
##oney
##otropic
worldwide
ana
Many
June
##aphyl
##ornia
311
verte
excellent
##ythm
Conference
Evolution
tun
##iop
312
A2
routine
hair
##UT
##actions
abnormalities
databases
##CL
##ali
western
##ysacchar
184
##uron
LE
substrates
##vel
Measure
depic
##lycer
adjacent
conform
abundant
##cel
Consider
substitution
##omyc
atheroscler
Indian
arterial
##urally
.:
agreed
800
reviews
interesting
ischemic
240
disturb
e0
manip
pal
151
compart
Summ
recurrent
precise
assisted
Dig
mature
Oxford
Gold
Mach
##fr
1039
stated
Their
ones
C18
confound
##osphere
why
gold
Cur
sor
##ulative
Characterization
emerging
##izophren
intended
Contribution
residue
manifest
vessels
Council
##C1
permission
##ocking
Tai
##ocarcinoma
determining
%;
CNS
##icin
LB
murine
corrected
##udg
signalling
influences
depends
AV
ET
##atically
##uctive
architecture
improves
Nurs
##ej
gastrointestinal
##uries
##xin
California
Fib
Akt
Pseud
314
coated
nuclei
enhancement
Ret
##tiers
None
Trop
forest
##uate
162
catalytic
Normal
##iley
Population
nutritional
tob
Prac
Mont
Metab
##itoneal
addressed
Whit
##ontin
blocks
mer
compens
regeneration
ultim
##ega
##inosa
197
tomography
undergo
causal
##aro
nod
rabbit
obstr
nurses
kh
shorter
lymphocytes
claims
##isc
suic
##pm
Quantit
Escher
##amate
##term
##plex
Level
KL
ubiquitin
partners
haz
028
##illing
electrical
mim
Asian
scales
vectors
potenti
loaded
HER
serious
Est
##uster
##azole
##b0
Tissue
Sev
##HS
##wing
Miller
endomet
Sample
covari
##brane
Line
Different
##igence
share
bed
compet
cytometry
##metry
biomarker
##antum
assumed
Target
##owel
microbiome
##arp
interviews
PW
lands
##idin
IGF
EGFR
caps
Import
##bridge
coupling
Virus
##aving
##ees
advantages
Correspondence
##kh
##ewh
Aldrich
dried
Escherichia
0000000
MV
##ierarch
pix
evident
Reviewer
Syst
##ios
##endix
##patient
##entive
Ot
##ulture
hepatitis
Index
Ele
sem
hip
##jection
calculate
achiev
##BA
mediat
EL
LT
hex
demonstrating
calculation
##field
Add
ligands
para
##iminary
##mal
never
building
HO
phenomenon
alleles
Xie
zinc
Hb
feel
Pap
equil
revised
193
Williams
Gonz
##003
Conf
oscill
bovine
investigations
lum
suffer
Jr
participated
##rose
tobacco
immunos
options
Supplement
##ologists
urine
overlap
Guid
apparent
angiogenesis
##ynec
Ophthalm
PI3
demonstrates
rehabilitation
##tism
providers
fatigue
Pain
##inates
##load
Cox
itself
mellitus
aortic
subtypes
Women
caspase
1001
infiltration
Dong
##ger
Prev
##CD
vertical
separately
##mental
responsibility
ranged
diagram
##uller
window
purchased
##oclonal
##ozygous
Random
fabric
##wh
Port
##osquito
Invitrogen
Growth
transformed
sent
relevance
##elled
196
circulating
280
pharm
##aya
exception
parasite
Chrom
##esh
safe
dorsal
##116
introduction
sessions
conclusions
##wards
##gens
NJ
##oded
##oscopy
Thomas
Perform
quad
Activity
PN
Da
Biotechnol
none
bands
empir
##mp
225
surrounding
nursing
bonds
cad
##anned
Survey
controlling
##plicit
solvent
Applied
##usp
Toxic
dependence
December
nutrient
JF
urinary
##ensively
DW
##iy
learn
##izophrenia
##****
Lung
exclusion
206
Pediatric
##Int
Shanghai
##109
##alities
##rays
simultaneously
##immune
##ibrium
awareness
##ciples
amyloid
Pres
gal
microenvironment
treating
neurological
198
230
frame
##entis
Cross
brief
##L2
DMSO
alkal
##Bs
##transferase
Suppl
##bert
Day
actions
retention
aqueous
functioning
PPAR
##iveness
Luo
Hs
Characteristics
persons
172
BJ
##atum
susceptible
replacement
KD
multivariate
##lam
1986
segmentation
Breast
##osal
probes
indicator
LDL
##traction
##haus
##ronch
900
##igar
+/
##107
##erning
##eres
204
##eda
recruited
limb
Bone
IA
Lou
vag
##enerative
Factors
##yll
Feng
reflections
declared
NAD
heavy
annotation
##isph
facilities
##eni
localized
leukemia
beam
hydroly
##olecules
::
##ko
consisting
Arg
##ngoing
proximal
##rod
Epidemiology
194
construction
##tors
Flow
annual
Fed
outbreak
##ober
adequate
glob
scanning
microarray
Lind
##eri
##aterials
Hay
##mid
Hem
strom
##ques
##ancing
kD
ijms
Pet
visc
fri
Academy
volum
036
vital
##anger
##amental
##letion
IT
##odon
##umatic
connectivity
##puts
Bayes
##wa
mask
188
##part
prolonged
##key
Report
household
namely
session
predictor
NIH
amplified
Mas
##izer
Abbreviations
capable
Oncology
nearly
##orator
overview
parad
##odynamic
##E2
unp
##opo
##eyer
##burg
restriction
LP
combinations
##avelength
larvae
equally
derivatives
contribut
1109
##chemical
metall
rig
consult
indices
##roptosis
Intr
spin
gamma
Prevention
mothers
pulse
Luc
supports
ethical
newly
unders
Liang
Acknowledgements
intention
cohorts
clean
fever
inside
##igenetic
ICU
comments
Systematic
cultural
##In
reinfor
embryonic
Pac
##Research
328
##ches
##CS
recombination
Harr
Serum
Enh
paired
fewer
Hepat
GAB
bleeding
disability
synerg
Grant
##fusion
supernatant
attemp
##imb
Statistics
intensive
EEG
Tay
limits
ecological
##ager
immunotherapy
##ifestyle
trees
##ensed
Declar
##GFP
Acute
189
performing
##cephal
threat
Opin
##MP
histological
mobile
peroxid
mesenchymal
ice
fine
morbidity
161
Dom
Frontiers
null
knockdown
Prog
visits
adding
Determ
##irm
nutrition
video
P2
RCT
Prevalence
tyros
regulator
Ques
mTOR
##sch
##idi
FP
inducing
##EP
preventing
Tel
operating
medications
##amous
##ief
accurately
engineering
irradiation
Estim
outer
colle
##108
prel
assistance
##ticul
Roy
nano
##NK
s414
predominantly
##alez
decreasing
exclus
aug
parental
define
##ui
##enberg
##ompass
PI3K
distress
##itrate
Real
metrics
##idel
figures
hoc
Pearson
Beck
bladder
Representative
absent
sepsis
##obacterium
Republic
Orig
##ract
##G2
##rive
engagement
prefer
Synthesis
##PSS
##Cl2
Good
vein
chamber
submitted
##urated
perc
##ocytosis
Wood
MAPK
Visualization
metastases
lineage
Silva
##AMA
biomass
enough
corn
encour
Pediatr
##umulative
platelet
Ye
256
photos
Endocrinol
illustrated
neighb
Mats
bird
Der
pmc1
Stress
##ony
coating
##oked
##ivariate
scenarios
fear
##Net
radiotherapy
##oglyc
182
highlight
Innov
M2
##levi
bor
##cell
virulence
decisions
encompass
pooled
infarction
injuries
##hydr
Regulation
Lew
##lammation
##otyping
pure
rout
##ava
delayed
Changes
##anine
pron
##A2
##amer
Obs
Province
E2
Et
formula
conjugated
phyt
VS
##acerb
cardiomy
##acterial
MDA
Gonzalez
becomes
##atase
web
Cambridge
obese
171
Dan
neonatal
biofilm
##ropsych
##omers
spectral
##auer
Lact
mosquito
1985
##MO
##apar
##tiviral
(+-
Log
assessments
wavelength
Wr
##ken
OM
outl
HDL
##nes
##AMP
Community
Lopez
##B2
Liver
intrinsic
Its
GI
Cp
powder
trop
dispers
203
mess
films
ROC
dendritic
##osc
##bes
senes
Martinez
spp
appearance
Individual
##electric
net
movements
##DS
##aceutical
Iran
##Bio
ranges
profiling
muscles
reading
persistent
chest
consistently
stronger
Student
C17
substance
##factory
potent
KR
univers
meet
request
implant
Hal
##002
Quantitative
Ji
Gib
please
spectroscopy
neph
##ping
##osed
innate
231
Rodriguez
Altern
208
##OG
Tok
antigens
##ahl
ongoing
##rees
lacking
##osan
CAR
summarized
##igm
##tilage
highlights
207
presenting
Ext
##ylated
contents
aims
Kir
EH
maturation
hippocampus
dehydro
##ania
inner
precursor
distances
MET
exon
weights
utilizing
hippocampal
relax
Jac
depressive
##pi
supply
finger
industry
Fan
statements
##eptide
Biosci
Small
epidemi
##CAM
Sept
Wnt
segments
##mented
policies
##ervation
##D1
fractions
unf
##ynthetic
Family
##yzed
Briefly
Mer
##AST
manual
transient
mineral
##hn
July
TJ
Ter
+,
consideration
activate
M1
monitored
Ross
covered
Samples
fre
exhibits
retro
##eto
obvious
Sand
ethyl
traff
##101
microglia
correlates
lipids
Consent
adipose
monoclonal
aggregation
Cohen
pi
iter
enable
##As
amb
timing
chromatography
##anged
##alli
##enop
elic
##ames
albumin
H2O2
lymphoma
observe
prevalent
##uctu
ideal
Pathol
Equation
offers
microorganisms
insight
transfection
filtered
detecting
younger
thym
Positive
##times
careful
##urt
##uber
kDa
##amoto
AND
##platin
influencing
##zy
##zyme
elong
##V1
optimized
Tw
displacement
Source
##elves
hot
Yuan
Isol
fitness
##125
Lik
##oracic
##ications
semi
exacerb
##izumab
horizontal
dogs
##ries
##metric
181
activating
mobility
##pe
trait
##born
fibr
Nano
Sep
##BR
Appendix
observational
explanation
##aba
Transl
Increased
sched
stay
kept
COPD
neurodeg
pilot
Russ
##idities
ideas
BT
keep
##rim
##IV
Beij
Regarding
223
Poly
colleag
City
von
conservation
Catal
depletion
spectrometry
Sweden
##anti
##ifier
considerable
law
##obacteria
Don
##aint
encoun
Well
changing
East
adapted
phenotypic
pert
##160
4degC
Body
Bern
phenyl
270
ischemia
nit
scal
scenario
##ebraf
centers
chromosomes
quar
##uginosa
Genomics
##pin
implicated
Optim
Phen
##ebrafish
##ports
Occ
sound
LG
##rect
Kang
specified
A1
RV
##ophageal
##MC
defect
##omical
improvements
distinguish
reasonable
192
principal
motifs
S5
venti
neutrophils
brown
1365
##ris
tag
lost
Xiao
cavity
progressive
allevi
037
necessarily
vesicles
tracking
##iers
ulc
LH
Learning
Conn
Specific
rating
Perc
260
corresponds
differentiated
publish
Law
perspectives
##inating
Interest
applying
FIG
arom
prep
Any
##criptive
##133
##uki
##sky
eyes
uter
HH
##otides
trim
##clinical
##102
rRNA
Median
##CAT
ways
KS
acetate
season
NLR
##pect
Phosph
Vir
Performance
pell
RMS
Library
schizophrenia
interc
Evol
##kins
fungi
gmail
flux
codes
##URE
aeruginosa
##rd
started
protease
##iculties
mom
Meta
She
Far
##NPs
##rah
penetr
##rotein
plasticity
extremely
persist
insertion
Expl
nons
template
eosin
Mex
##asome
Hen
##arma
BE
Clark
##F2
##Introduction
immunohist
undersc
thor
Contributions
pharmacological
Beijing
Virol
P1
accompan
England
##isch
depicted
Orthop
''
HU
Mend
airway
April
##ographical
failed
Peters
##ukary
scheme
##griculture
##opol
beginning
1155
upregulation
organizations
##ulates
opinions
electroly
cytotoxic
determinants
substances
Cao
pmcIntroduction
automated
DB
'.
lifestyle
##ipped
##PLoS
polymorphism
October
gray
consistency
om
Recently
##ocomp
Mice
Agr
mand
Please
##economic
embedded
Aging
electric
##opes
epit
fluctu
marine
Let
Sar
Figs
Polic
remodeling
Therapy
lipoprotein
Tom
preference
##icking
utility
Are
DK
Pul
attitudes
Ov
##ialysis
responsive
colleagues
Taiwan
Structural
227
##ache
pel
275
regardless
vessel
arth
235
epilep
PAR
##sa
remark
##ilience
Cro
Conversely
RI
##MT
1980
##Hg
Choi
Potential
hence
synchron
##300
calculations
##hol
360
##auc
##ofluorescence
##assium
HCV
##1a
##ching
virtual
interleukin
September
##202
##oidal
##trict
Mental
##AN
##words
##gal
kinetics
##lux
Wash
##flow
hierarch
##appa
vacu
emerged
aligned
040
S00
TK
450
Ki
Tian
cytotoxicity
tens
##ervised
reper
chains
meeting
035
wa
Obst
s41598
Gil
breeding
hemorrh
wheat
##LP
HJ
scatter
cust
dehydrogen
walking
Francisco
calibration
Anderson
209
Sr
continued
encoded
JAMA
cool
##icz
Neuroscience
Through
closed
Schw
psychiatric
art
SPSS
fractures
shaped
Sz
Stem
atm
promin
CVD
fo
permeability
carbohydr
Taylor
market
atrial
##teine
kb
Biotechnology
cytoplasmic
%-
Psychology
##EB
Epidem
2A
Summary
##sc
277
Salmon
##cepts
guidance
Tris
Param
cigar
opportunities
Ecol
Eg
narrow
Wilson
##avi
038
EN
analytical
##uda
Zhong
##115
driving
')
##aboration
LF
##pread
mother
##asty
Publishing
McG
PCA
##ipment
O3
WA
##RC
##osing
decom
Accessed
bowel
##ounced
roots
thems
understood
centrifuged
attack
##iding
290
arrows
ecosystem
themselves
exploration
Khan
##ila
signature
##auss
Nutrition
surveys
sampled
##zer
##wood
Gut
Roch
Fox
##uria
Peng
##iotic
enrolled
##vascular
##oides
captured
224
1A
##aga
##itary
quick
synthase
Neural
Sanch
##UL
recall
transm
uncertainty
linkage
285
think
examples
took
##ault
Even
##axis
##lings
##dr
strand
scans
randomised
340
##oratories
FF
race
##hab
beh
1161
fixation
Kal
matching
Hans
##iva
physician
excit
homolog
##ologia
##abled
surviv
Om
aspect
##006
380
##MI
##idespread
purposes
330
limiting
clinicians
##aldehyde
C57
##olve
S6
##reek
Ci
Epidemiol
discovered
Od
flexible
##apt
difficulties
##comes
ultimately
Mes
Hand
polymorphisms
Healthcare
##plos
meat
Direct
##007
August
237
autoimmune
Hy
transcriptome
##omycin
government
MHC
{\
##atile
cond
##ocellular
adopted
delivered
t001
sugar
##eq
knockout
dimin
gly
coordination
255
Bes
electrodes
heterogeneous
vision
name
preliminary
Xia
bearing
Chan
##eptor
ppm
rough
David
analyzing
ART
yes
enzymatic
Yi
reporter
substit
tau
##ocom
Microbiology
Andre
Cardiovascular
acceptance
empirical
binds
##udi
##graph
Asia
Enter
tet
Datab
tyrosine
276
clones
nom
maxim
##agged
pay
cartilage
##atid
##117
Mag
Electro
stret
methanol
##bro
adenocarcinoma
##rozen
Kingdom
harvested
Within
colony
##spring
VI
Distribution
simpl
People
bodies
Cri
scr
combining
moun
epithelium
Deng
##amura
exceeds
Hill
CRP
EJ
Bull
##igu
Japanese
disruption
##arity
select
fundamental
##aires
295
2H
dye
splicing
BH
teeth
##ropathy
##menting
##uris
GB
Ly
enables
bioinformatics
hypothes
##opathological
##jo
compliance
##rocyte
usage
infant
##amycin
constructs
easy
sequenced
##004
focal
residents
##umina
Division
Sem
bronch
acting
focusing
dissolved
##opor
Kaw
Magn
Adj
Correlation
ker
Gender
suspension
##180
converted
principles
stiff
demand
accompanied
##ading
##190
drinking
##aired
N3
##igation
WM
attachment
Gynec
binary
##asonal
Gro
##iliary
casc
stock
gland
5p
GG
epigenetic
portion
##vic
guided
##abin
polarization
hypothesized
DAP
seiz
negl
intravenous
contamin
German
Rub
concerning
Tables
JG
##ails
Novel
##idium
##enta
intact
##oking
CRI
NSC
pump
scoring
Att
Acid
305
Guang
KC
##edicine
##oar
blocking
Free
##lan
233
Shah
##170
structured
Intervention
SO
warm
arrest
TL
Value
Kong
dot
party
interference
propag
ord
Informed
DEGs
overexpress
pore
faster
Discl
reagents
##oresis
##prot
##VI
Pil
Local
1074
effector
Cy
##118
Perez
job
##ocytic
GT
carrying
supervision
Negative
RNAs
##230
directions
eti
273
pg
##onc
km
##iner
H5
##Ch
astrocytes
mmHg
taxa
sustained
acts
Men
contributor
##obil
Gar
##hold
229
##ario
PU
##ocardi
Head
gradually
pigs
opposite
word
reaching
degrees
upstream
glycos
Hypert
symb
peri
aqu
jp
##icon
boundary
##ciplinary
concluded
copper
Bayesian
##ellite
connection
Raj
Mir
##dy
pronounced
##ophosph
Deep
frontal
##AL
Treg
happ
Musc
1037
Comparative
191
Unit
##eur
##119
spot
Surv
build
donors
Medic
##tium
##gans
Prepar
##ien
reflects
##ael
##pecific
haem
Cai
Technologies
307
rotation
cumulative
bord
Lys
##abling
1056
specimen
##prising
Ultr
notable
contamination
##114
consecutive
labeling
trig
Sah
SIR
pic
##odal
categorized
287
glutamate
squamous
consequence
screened
Considering
bip
1984
##PT
dehydrogenase
335
reviewers
Heter
##omestic
##126
adjustment
Cognitive
initiated
Paras
##atz
hydrogel
landscape
##onymous
Third
##oblastoma
>)
##unk
became
polymers
naive
##mber
sple
Factor
gave
##elin
##...
classical
substantially
parasites
245
Conflicts
preferred
eating
tex
Ding
Staphyl
effort
tooth
265
defense
clearance
Fa
##itations
##onate
Lam
pathophys
drawn
spher
valve
PBM
##olate
226
excessive
##NN
Wong
widespread
##illed
vas
hospitalization
Antib
objects
ath
Ps
drought
Nove
Ze
visualized
##JM
Baseline
##acion
##ologist
Proper
Super
H4
##pes
##hl
incorporated
catenin
degeneration
1983
CW
bilateral
337
adren
267
zebrafish
##aden
TO
downregulated
##SD
hydroxy
365
plotted
partner
engine
##BO
built
resolved
industrial
ensuring
IC50
Database
##ocatal
Year
throughput
029
Phyt
opi
annotated
fertil
ren
##165
##SPR
transduction
requiring
247
236
Sanchez
283
chond
advances
Infection
fermentation
iii
##cean
##head
Gall
CKD
##ray
##lem
ages
difficulty
insufficient
700
ABC
##angi
isolate
264
Vet
Ra
habitat
##ysts
050
private
Schmid
verified
Values
offspring
Signaling
Fang
RW
refers
falc
Sak
##ME
##f2
restor
transporter
1017
surge
elevation
##AF
##205
seeds
##etz
recovered
Jack
neutrophil
HSP
Chu
slope
##145
myeloid
circuit
306
yielded
py
department
volumes
subgroups
##atibility
Stein
mir
unex
accessible
345
interacting
subjective
Shim
forces
orange
Sports
camera
##raction
Significant
##R2
##hr
raised
atherosclerosis
unable
Outcomes
GABA
luc
discrimination
believe
Web
attached
flavon
228
OT
bulk
##tier
clone
equilibrium
##naires
HN
margin
##itosan
extra
##book
division
burn
lens
stig
Davis
##pass
centrifugation
comprom
Alt
##ece
297
TiO2
##uri
Eq
EU
examining
222
286
##airy
quite
medial
Relationship
November
subtype
##usions
generating
JK
##157
deposited
##001
##treatment
greatly
papers
ben
excitation
Main
##anz
##tiz
breath
##rip
Frank
##oted
Err
reflected
##erating
Protoc
Whitney
withd
##ocyan
Differences
achieving
Question
incom
tryp
Color
Oste
Cer
adjuvant
##estim
##titis
Cruz
quantify
##asion
234
##206
SOD
facility
T3
Frequ
modulate
##acin
ethics
##ovasc
judg
##ashed
percentages
##tia
##poration
equipment
Underst
modes
potassium
##eds
Inhibition
fitting
puls
frozen
foll
279
##ressed
##opoul
HIF
update
worth
##recip
Importantly
hybridization
Field
reserv
##yen
<.
Cellular
sclerosis
Ethiop
expanded
immunosup
##rophys
##ectives
HPLC
cortic
Yin
##akers
filled
Cycl
Dermat
LJ
mt
former
Salmonella
licensed
Pin
##inki
student
homogene
##knowledge
Gas
##orf
278
lif
Prior
criterion
constraints
289
HCl
Online
##127
maximal
##osens
##450
##ucted
##oxin
rpm
Hi
dro
##oses
D1
OF
investigating
##ausal
overlapping
graft
rule
overcome
D2
Muller
##ging
##PE
Cs
immediate
plasmids
Intell
Kam
acknowledge
3p
}{
##kle
resilience
discrep
Hemat
institutions
conflicts
##adv
ethnic
##unte
monocytes
Related
##113
##Ls
perturb
modules
purification
quantum
protect
mind
kh2
Ash
metabolite
silencing
Washington
239
##tera
Pseudomonas
H3K
257
hazard
Policy
Trial
303
##00000
249
##vian
##ulus
##184
tip
eukary
lactate
decades
views
284
Bot
senescence
WS
##ritish
047
minimize
idea
##veolar
Bell
resc
Cere
##iferase
pneumoniae
elastic
contrac
ON
grain
##opoie
orb
Immune
##iber
266
panels
extreme
##nan
##La
Schematic
Mix
Strateg
rheumat
beads
CCR
##ois
validate
shell
British
Scre
)(
venous
##ptomatic
highlighting
deb
Stroke
eligible
detectable
phag
Staphylococcus
##ensin
tight
thorough
##166
##aryngeal
situations
##nea
angles
Ken
Land
collabor
Sug
##123
045
anch
##ACS
lnc
transplant
Hels
dur
BMJ
connections
Santa
anatomical
NCT
nu
##mitt
favorable
regulators
congen
GJ
existence
speech
##CH
Australian
Crystall
263
chloride
##ospor
secreted
intelligence
Average
aspir
2a
antibacterial
##gi
##asive
operative
##dam
Prob
cytos
instability
Veter
##enko
Bart
dissoci
granul
opportunity
blocked
genetics
##otomy
##204
243
front
stere
##ymb
##erge
##008
interpreted
##las
##orical
C19
MSCs
Hir
infiltr
288
##135
Physiology
Yao
##155
Poll
socioeconomic
batch
propose
##agulation
##aplan
##iparum
sometimes
BSA
programme
Gol
Fernandez
obst
Cardiovasc
averaged
Phyl
epidemiological
numerical
configuration
HDAC
increasingly
##omat
Coch
prominent
nutrients
violence
221
hr
##rint
##stein
##athione
translocation
##olving
pollution
##cience
AKT
##SCC
continue
b1
poorly
Ferr
##andem
expon
drive
##CG
##ograms
KJ
Pu
Pathology
Annu
386
preoperative
Conflict
fasting
##ynamics
##ilateral
minute
Immunology
Hom
269
stromal
Hun
embryo
strict
Admin
##__
##DC
16S
proportional
inferior
046
revision
Light
EG
##III
KEGG
Christ
split
##Os
bm
inequ
VR
elegans
deficits
##ING
FBS
dip
##com
plaque
Understanding
333
gall
ammon
wet
contacts
##otti
357
Rib
Produc
exec
##oprecip
Tim
proven
Mus
GAP
agricultural
Applications
Services
##167
away
.).
##eutics
ECM
Roberts
Sin
Complex
Gram
flat
##abs
assist
246
Computer
Safety
caregivers
##win
##aser
375
adolescent
##ypical
##oke
redox
homogen
mediates
Cluster
##argin
similarly
Sleep
replaced
Invest
smokers
BW
##inol
secret
##inase
##coprotein
falciparum
Six
##ership
259
reward
Experiment
meal
Higher
PAGE
##nia
leak
HG
traumatic
activates
##usting
trigger
Illumina
mapped
Helsinki
ACT
Ce
##240
(+)
WC
addressing
epidemiology
flower
deviations
proph
Ont
LI
294
Louis
infusion
draw
##163
##112
Cardiol
stom
##iri
differed
questionnaires
Crit
##136
##otoxicity
Plasma
##oarthritis
Rheumat
309
reagent
Leg
nasal
Berlin
Mitochond
Neurology
Seg
##idase
##hea
Before
sustainable
##atible
superf
updated
Set
Classification
##207
takes
##uli
exists
##eeding
##bruary
estrogen
ACC
vo
Application
emergence
274
.'
##aman
HBV
##luid
1B
##erol
row
##iation
FGF
Pak
##aching
##acao
##ochrome
neurot
254
seeking
maize
Left
##ster
constitu
ferroptosis
intes
piv
Ras
Relative
253
comprised
##ophilic
shear
034
mediate
auditory
feasibility
Dim
anesthesia
1982
batter
370
Diagnostic
hearing
explicit
Fuj
##pa
Nr
##ostr
##embrane
("
hydrophobic
Jo
299
##UN
Cong
296
Kel
pup
competition
Brun
##ilic
##gar
336
colonies
IG
##CAG
qRT
running
domestic
Bra
PPI
##ss
##KO
alk
Sor
(~
correlate
gir
enabling
##iana
##roscopic
Walk
proportions
##elic
characterize
conductivity
##oda
##atinine
pac
additive
Constr
AU
Dent
355
participating
##lets
##ibraries
##arant
phage
perceptions
##380
Influence
Step
dimer
diarr
anomal
##134
goals
aid
##O1
##ystems
night
yields
suppressed
HER2
spleen
circulation
Flor
concepts
holder
reactivity
298
harb
304
EDTA
FIGURE
graphene
spine
youth
##oL
Instr
Fried
##while
ablation
carriers
1146
MIC
##osterone
fur
toxin
CD3
heating
Ant
Signal
258
tailed
##137
Differential
C20
##H1
blotting
Tokyo
Gra
motivation
implantation
##mm
registered
neighbor
bis
duct
rely
February
##168
capability
homologous
TEM
circular
absorbance
##T3
268
Diagnosis
##ematical
normally
##idem
##oskeletal
worse
Ethical
Jacob
Bus
entr
Short
BG
Hart
##agl
formulation
##ariable
survivors
Sequence
quantity
EVs
expressions
Assay
Ngu
diets
MHz
ethnicity
PEG
Practice
critically
prescription
244
tubes
Candid
shifts
Kaplan
comorbidities
ASD
##onical
grey
Tub
##6A
mening
modern
geometry
308
ket
benign
regimen
spike
JT
anten
Kan
coordinates
apply
##panic
)*
vic
##feld
##inflammatory
Figures
##VE
##ompson
nico
Activation
##plasia
Mb
sector
Pattern
solub
Carl
##ascul
accession
Wen
Box
##318
##SE
novo
whom
##128
##ego
born
Neph
##olo
lymphocyte
##tz
##ogether
wear
links
topic
##600
##ought
volunte
cattle
River
practition
##PP
Raman
##ysaccharide
Sharma
preced
Mechanisms
Service
sand
complementary
az
Jia
arg
comprising
##cious
depr
iod
##ropy
ICD
##can
Micros
syst
anticip
isoforms
stiffness
Version
Gel
dissem
##ians
QTL
Kol
1158
committee
draf
ball
moment
Nav
That
broader
resting
extensively
lungs
desired
##RP
BI
evid
overweight
Animals
translational
tib
##upta
facilitating
helpful
347
Zeng
##okines
##anal
ventral
inver
nich
339
##oka
C57BL
camp
##opathic
principle
Thompson
candidates
Percent
carrier
birds
+/-
##ubb
##virus
232
Death
inoculated
enabled
acceptable
stratified
##ocon
conformation
Compound
sinus
autism
cognition
insec
mV
webs
##198
Prec
248
capabilities
custom
3a
Biochemistry
##oys
scored
Char
serves
##aemia
Infectious
1046
##CTT
bin
lam
latent
metals
Change
Por
##fa
moist
Mak
##olym
Pd
motility
Media
preterm
antit
belonging
##utch
##angement
aberr
chi
##Bank
BAL
viable
incons
Contin
dosage
centre
##no
390
Adoles
##rosion
Nguyen
subunits
Supplemental
rain
coher
CRISPR
##rous
Associated
##side
OC
##teen
phosphatase
Ax
creating
subcutaneous
Proteins
hors
mediators
Secondary
considerations
Where
See
facial
cm2
Tum
##omit
MCF
progenitor
Xi
antiviral
##regn
##eleton
##rices
ds
1976
geographic
cutoff
sulfate
Kidney
s41467
digestion
ect
##rile
subsets
G1
##onts
##low
dram
jbc
##RE
download
282
##linear
Properties
pivotal
FG
seasonal
ss
Acknowledgments
behind
TW
kinases
##empt
##124
inverse
##146
sterile
Power
perfusion
Fat
Wild
discontin
ances
Biomedical
IU
##mi
##ungal
s10
ATCC
FJ
Gluc
##ux
##opoietic
compression
neither
retained
##oshi
xyl
suspected
Institutes
Merc
Ali
Que
353
dopamine
##ACE
Antioxid
Ecology
Vic
##mia
droplet
##tian
Rom
cultiv
Induced
Lipid
leth
Quantification
suff
NB
##adic
Alg
cerebell
##T2
329
resusp
hepatocellular
nav
convolution
moving
Preparation
cisplatin
##itic
##ieved
incorporation
UTR
##ochrom
##aight
catheter
Core
Synd
Ethiopia
gyr
works
Dys
counted
chromosomal
promoted
##oderm
Ib
insurance
equations
mucosal
Advanced
##encia
346
DMEM
Hor
explo
##209
sea
converg
efficiently
##inescence
somatic
generalized
Wiley
##eval
##b1
Calc
BRCA
teaching
##orus
incident
HK
apical
die
thal
triggered
trust
C21
Down
##agh
Miss
##plementing
##enol
Internal
H2O
Sustain
inference
Once
Mouse
individually
367
completion
Rosen
##oustic
##177
##nik
##ectory
university
Roche
Gy
##oplastic
fitted
Rah
Ster
dich
Guidelines
Maz
aggressive
##uven
##anks
Spect
##122
048
copies
smart
Oz
concentrated
##C2
precipitation
])
##adequ
T2DM
##ivation
dex
CAD
##ersen
356
##147
composites
##368
UA
##math
amel
##disciplinary
pref
confocal
##regulation
##visiae
##akis
trajectory
Surgical
seeded
Electron
Morph
seman
##K3
chemistry
cellulose
Five
Anton
Repor
phosphorylated
gaps
##960
349
PhD
978
magnification
Lewis
modelling
suppressor
advanc
##ido
studying
##oplasmic
##dep
varies
##pen
##159
lith
electrochemical
pyl
differentiate
epidemic
instruments
##iking
glioma
##ru
agonist
Suz
##herin
3A
Lymph
proxim
Act
hemoglobin
expert
covariates
Special
##MRI
photo
Declaration
libraries
##emble
interferon
)+
lengths
indeed
remote
Basic
divergence
signatures
Eas
393
diagnoses
Glyc
interf
prevents
imbal
Models
##M1
Nik
Oxid
366
inferred
contexts
##Us
exogenous
Depression
##ML
organism
NSCLC
##oe
antis
##odef
preferences
wood
macro
033
##play
concrete
Toxicol
Alcohol
Last
route
##iling
##eces
##aimer
##haps
cerevisiae
##elson
Obesity
fourth
##anos
Alb
colour
lysis
1200
Fren
glomer
##strom
##175
281
conceptual
schools
xen
Inj
genera
##197
##406
que
##149
FH
normalization
302
Metabolic
letter
Condition
femoral
Critical
ej
##ua
2B
##uy
proton
facilitates
flexibility
##158
Plat
##405
6736
##affin
##129
pit
##itter
electrophoresis
##obacillus
##apor
Genomic
requirement
abuse
2nd
##iene
##ozo
infrared
Measurement
t002
##eptive
343
##points
##irection
1981
348
thresholds
Nic
station
##alg
##ploid
guarant
cyan
monol
Tex
Bol
##***
##viral
A5
agree
##eties
FB
GST
washing
##ishi
transduc
Institut
Bacterial
Dur
repeats
272
systolic
##OA
Disclaimer
##opathology
Plasmodium
imped
extend
displays
334
warr
sensitiz
Term
inputs
##imoto
##ucci
044
assembled
straight
Denmark
##169
Shin
passive
Liao
Hispanic
couns
##length
stream
Mexico
IBD
multim
contig
cry
##bur
ERK
AW
exclusively
Pract
inac
##hard
##uro
##osocial
##ourn
##illo
slides
##wal
feasible
##tiary
Besides
##195
##met
codon
Ten
modulating
Les
##ums
Score
Disorders
rap
ped
##umbar
Tong
suicide
Accur
Els
tempor
Saudi
incomplete
##NV
Ophthalmol
e2
opening
exploring
mediating
##emed
##uge
newborn
dashed
come
##chlor
COX
denotes
relapse
##153
gait
sucrose
##itated
Innovation
##jects
##agi
MAT
predicts
sheep
395
A3
Santos
encaps
Chap
##ston
security
##omorph
377
363
catalyst
##zhou
circadian
##omeric
mucosa
silver
##264
Gastroenterol
docking
spent
KB
Neur
Cast
WB
deformation
Gauss
(*
ure
selectivity
inducible
##ni
Ng
##uf
##CTG
##oir
##009
##226
lign
292
.),
##nam
mammals
nr
##iasis
##260
##inski
rar
react
Taken
promoters
finally
##otr
Analys
wrote
epilepsy
Niger
road
Surface
Yosh
241
##vin
employing
##rob
##idis
fibrill
Tam
Keywords
1D
disclaim
lep
NEJM
held
##tub
publisher
NL
publicly
bic
##gene
##urisd
WJ
stack
##reci
##ontrol
Glu
##ATA
-.
1x
experts
LN
manifestations
##enth
##ethylation
##zed
detector
matrices
promotion
Ray
##artz
1101
illustrates
gestational
>);
##ucl
RNAi
Ing
344
+)
##iano
##amps
Currently
Joint
##MV
trunc
271
##ikely
##404
##199
369
eV
Hop
Bcl
##uker
##144
edges
ocular
pes
359
served
themes
goat
242
incorporating
steady
withdraw
##$\
saturation
Je
##elfare
inactivation
mutated
graphs
McK
lobe
##affe
jurisd
undert
CNN
DOI
arb
##ettes
1089
##astolic
##osus
accounting
markedly
##ocor
13C
Transcription
insect
congenital
Exerc
Allergy
3H
crack
NG
]{
##oten
AML
H7
lineages
Heat
died
communic
Region
##ographs
##utory
board
var
##iefs
HY
##143
##uncture
##oms
368
##156
##185
##akehold
lapar
Rab
##161
Patel
##DF
Error
##bient
adm
eggs
hind
city
Stage
##187
13039
adjusting
sought
intestine
pc
##uscular
confounding
amss
platforms
##132
STAT3
G2
##ysym
hydroxyl
excluding
547
fibroblast
fore
collaboration
nanos
verify
upg
starch
AAV
resin
produces
##208
Costa
scope
##ocks
##rontal
##bsy
##388
setup
CDK
replicate
##onald
tagged
##ophyll
Xue
##har
documentclass
amsmath
amssymb
12pt
##rsfs
##fonts
wasysym
amsbsy
amsfonts
mathrsfs
##eel
bioactive
Ik
trace
##anner
Period
upgreek
DV
needle
setlength
69pt
oddsidem
}{-
oddsidemargin
##thal
war
##S1
reticul
Bul
Span
Card
[-
##194
Dam
##506
##M2
downregulation
Panel
circles
##inge
symptomatic
unlikely
resuspended
##worth
simply
##505
TX
##utation
linking
##otting
solar
Cui
TU
intensities
JN
Meng
##270
Jackson
Training
luciferase
sided
##ported
##MR
##roni
coping
Canadian
Og
Pb
##apses
Circulation
triang
C22
##ifies
##adeh
tendency
microc
251
##istan
assume
kinetic
##cu
mono
Hou
##atial
elimination
dots
repos
percenti
hierarchical
vaginal
static
enl
inserted
creatinine
CpG
##....
##HL
Office
Support
##D2
Tuk
travel
Resistance
##yph
encephal
ester
##iled
##ishman
paradigm
Dietary
Consistent
decay
Michael
##ante
##148
##BP1
NCBI
##164
sul
serine
##227
##otstr
##coholic
039
Poland
##tures
squares
robustness
elucidate
ventilation
Dop
stain
acidic
reflecting
Crystal
gon
Efficacy
##elles
Species
deter
title
##460
editors
Ban
##cz
##ogenes
Chris
attenuated
universal
##508
Meier
##903
397
north
identifies
Koh
mouth
named
complicated
488
uk
aromatic
sick
potentials
Air
##407
pylori
##196
##nel
DAPI
appl
funders
RK
gives
##RIS
GenBank
moder
Agency
060
helix
helps
3b
##ographics
##axel
jus
latency
Southern
drying
##yster
coded
Questionnaire
south
358
##iterrane
Fab
statutory
crystals
##139
genetically
Large
War
glycoprotein
unch
##ART
hydr
##176
southern
believed
chicken
poin
cascade
gp
asymptomatic
File
Union
chitosan
##ete
Carbon
inoculation
301
preventive
Bos
sing
DOC
slices
weekly
grants
sun
)).
attributes
Administration
##isa
densities
lysates
retina
vit
##agul
quadr
patch
291
synergistic
emissions
##ortium
Jung
administr
Has
pixel
rect
glutathione
brom
Pacific
##111
##oxygen
##306
graf
endemic
stimulating
##ismatch
3rd
nation
1979
##ocus
NLRP3
##ilarities
##umann
flag
transmitted
Harris
marginal
##undred
adsorb
sten
##408
letters
VL
border
girls
CXCL
inadequ
Kre
Theory
##con
crude
conducting
scaffold
um
##x2
##sson
Rapid
Olive
##rag
colonization
meaningful
##ellar
Belg
MAP
s11
admitted
offered
##arez
experimentally
1006
Original
vulnerable
##fall
##236
chemicals
Dal
triglycer
Govern
mammary
##oj
fruits
compartment
##otub
grouped
attempt
B1
perman
rheumatoid
##tiles
interacts
wells
##2O3
atomic
##arse
neurodegenerative
obtaining
hemorrhage
diffuse
425
##360
organized
affiliations
TI
periodontal
sequential
Lor
destr
outpatient
Dai
Cov
cues
##CAA
Meanwhile
gels
FOX
stigma
##ardo
repeti
dead
##_0
##abine
Tukey
argin
WR
humidity
coc
Hous
innovation
S0140
396
##ectual
##ergies
##uctase
carbohydrate
conclude
refinement
guideline
segreg
##otions
Hydrogen
##aco
##ops
##acryl
##inator
exhaus
GSE
Lower
##map
homology
geographical
equipped
placement
##154
##otensin
252
##ERT
##ielding
quickly
##oporosis
answer
Survival
##EX
##eurys
##DR
##edical
describes
Bost
CH2
Tod
attend
Rog
VP
Gaussian
##225
376
Right
Frequency
French
##BioMed
elongation
##162
optic
fatal
480
pairwise
stimulate
anemia
Squ
prophyl
##970
powerful
AST
Soil
hydrolysis
##tracellular
##atit
##operation
nitric
pent
urg
transmembrane
Bacillus
attain
mood
canonical
computing
categorical
N4
Miy
po
allergic
Moore
Hard
Mari
cadherin
##186
echocardi
distant
Dani
TIF
immunoprecip
1c
Temper
rearr
supervised
##orial
Reviews
##add
accounted
cyst
Thromb
Anth
trajector
physiology
##223
##erce
society
correctly
aware
neuros
trajectories
SCC
calculating
##930
##304
##anna
Kw
##172
##van
##188
##x1
373
estimating
Finding
Gupta
Behavior
##utz
Common
Evans
jurisdiction
I2
##305
proved
bile
helped
##omyces
##908
354
northern
KH
Rat
imag
episodes
435
dispersion
Exam
Licensee
##omez
##igan
##385
radio
mRNAs
axial
confirming
Abb
mixing
AZ
managing
##iles
##Ws
checkpoint
manually
Lep
relaxation
Reports
Corporation
filtering
Cohort
1st
transpar
bj
##idad
##enicillin
rated
##ocortic
felt
obstructive
modalities
LO
train
behavioural
Ent
KP
262
appreci
sham
##tracted
Wolf
##247
Schmidt
Scheme
antagonist
##rey
Vill
##riz
implies
##aze
Richard
##retion
rarely
bonding
##po
specialized
Tal
Production
Hoff
attr
Strept
clustered
modulates
hol
readily
randomization
peroxidase
oriented
TCR
steel
##unately
Cureus
OX
1523
spots
##ubicin
Tg
")
dd
##etts
999
Hod
alveolar
385
integrating
Fuk
##erved
galact
grass
##artile
deterior
##ropl
triple
repress
concomit
removing
pseudo
Approach
ont
recognize
lysine
transitions
Lund
hundred
Inform
##ractory
Haw
cos
hormones
2C
Diego
dox
complication
GWAS
cement
poli
Loss
Ri
##amus
accessibility
##G1
references
##odeficiency
decomposition
Pen
Clinic
Gill
##ville
##cox
doctors
port
empt
##eries
##265
##odegrad
giving
envel
lifetime
Assoc
triplicate
preserved
BV
##elets
EMT
friend
Bruker
##905
Plan
Culture
##mar
stakehold
considerably
invest
364
waves
##hed
SLC
##ahn
moisture
Tob
descriptive
##978
##orec
registration
##aveng
##oic
##937
##258
##iffer
##opoulos
##itable
##Ga
carboxyl
##tivities
##121
Interests
ear
hosts
dimethyl
isot
immobil
edema
stirr
Hypertension
popular
Pier
##ermann
##235
Prol
pollen
Sensitivity
vertebr
##rid
coast
##allow
rules
##ven
centered
##opharmac
##tt
bus
##related
renew
405
Tox
cub
Py
378
##eder
##oks
Ug
manufacturing
##ichi
carefully
SVM
HeLa
##phy
##aca
locally
herb
*<
exosomes
provision
384
cation
##rophot
continuously
Ky
want
Major
Tu
CAT
Fluor
hydrogels
Respiratory
default
##ulsion
755
discussions
outlined
##386
FW
##urev
amelior
Cz
##iant
##178
##ously
scattering
flies
Industr
operations
##ischer
Metabolism
pipeline
gangl
checked
##174
entropy
terr
nanom
GSH
##906
colitis
epidermal
Das
stand
##387
allocation
manage
p38
LY
Oper
presum
342
analges
facilitated
sediment
arrays
##pler
abilities
legal
Gomez
##letes
SAM
phenolic
glycerol
activator
atrophy
naturally
tension
##icip
ADHD
##rows
hall
pren
##advant
##pop
opioid
denat
##fold
##leg
shed
##294
Chall
##907
##ewise
actually
dense
prone
Chung
261
(#
Qin
nonlinear
productivity
GN
Anat
immunization
radius
##olis
anticancer
picture
Dar
redund
GAPDH
##ogenicity
famili
Alpha
##173
TRI
consequently
##ynaptic
Maternal
derivative
mitigate
##itoring
##1A
##ofib
Forest
##266
##ogeny
experiencing
cyclic
##ITC
rup
##una
##ameth
##aucoma
##posing
beliefs
##asaki
sin
379
CDC
offering
##eet
notably
methodological
SER
exposures
kappa
Rho
##b013
Meh
alkaline
bmj
##276
cycling
Neuropsych
recordings
Screening
exhibiting
##193
Bey
##287
##470
cirrh
##ocket
advice
##organic
##heim
innovative
intro
Determination
fMRI
plas
turnover
Marsh
cass
1975
bipolar
CFU
chance
mesh
HbA1
O4
##PO
fibrin
Doc
Upon
Island
phospholip
##ococcal
inherent
##lich
weigh
clade
establishment
Wa
lever
greatest
CXCR
semantic
##507
doctor
jurisdictional
##tise
seconds
##esium
##iterranean
Mitochondrial
1977
##acycl
tertiary
mast
070
assumptions
Isolation
1152
modulated
Fam
electrolyte
##owska
terminus
aggregates
Il
##Rev
ald
##DP
IHC
mismatch
silica
##odiversity
Will
##967
bench
kern
Cys
bud
##2a
##ossible
##ilent
Autom
##icans
serial
pellet
387
underl
Hernandez
fire
Fram
proximity
1103
Area
DCs
protected
functionality
Hab
chip
Analyses
lac
##awi
fluctuations
vascul
4A
s130
##agic
capillary
PDB
##ewhere
##emann
ChIP
keratin
Fo
##cale
robot
##orge
##cine
T4
quin
##370
##erobic
1978
optimize
occupational
##ophen
##228
383
retrieved
##etheless
B2
downloaded
##375
##tes
##oyl
##pp
scaffolds
##cumin
definitions
evoked
choose
obl
Artif
printed
H9
oct
endometrial
fair
constrained
reader
Advances
##Pad
##504
##303
reperfusion
cysteine
##mg
Coron
Bou
##248
Outcome
GBM
leuc
boundaries
##natal
##amed
BN
swelling
##elsen
Agilent
statistic
Compreh
house
injections
##atidyl
objectives
##endit
rub
prescribed
Cochrane
##ius
##ochim
##adh
Lactobacillus
##ocated
closure
##ns
cc
##oqu
1107
osm
##256
FDR
Dick
designs
##biol
460
Polymer
##383
##rice
Bai
Bri
aerobic
endometri
Kon
Spear
ven
##idemia
deploy
biops
032
Sen
##uation
##titial
Scand
Nuclear
1159
oxidase
Vel
hypotheses
##astructure
biomedical
cAMP
##anium
peric
##ticide
##904
Between
narr
##tified
Tax
persistence
321
3000
GTP
aneurys
##isal
VT
imper
diastolic
##ctive
##224
##osarcoma
##je
dissection
Nish
Mand
diffraction
partly
Ball
syr
352
columns
mimic
corneal
instances
premature
##tron
Agricultural
Knowledge
##aign
##enez
##FLD
RES
emotions
clock
##237
automatic
Royal
reservoir
Strength
##ograft
##grade
suppresses
FI
##152
Accordingly
Walker
vill
Ahmed
dairy
##955
labelled
NHS
##277
verbal
tailored
Bak
Chlor
##isis
ambient
##berger
##ovsk
##909
##ewhat
Kur
Digital
hemisph
##oblasts
cloned
##after
##posure
Hyper
##ny
Roth
##288
##b013e
implants
0b013e
fif
intron
encodes
Stim
##NOS
Regional
##inance
antitumor
##plicates
Notch
osteoarthritis
Paris
ECG
pin
##open
##201
##965
##ugg
##307
similarities
##ectable
planned
Vaccine
00000000000
nurse
##emes
Commission
sports
brains
gyrus
Sab
Tow
P3
FU
distil
Hg
sj
##bb
annurev
362
Numer
polyphen
##308
##utrition
Fail
##245
(-)
Cav
##ateful
Grade
Kor
talk
##403
Meyer
manipulation
alteration
oligonucle
Link
Mediterranean
##275
players
##356
Bras
410
filtration
computation
Fors
microtub
##oglobulin
Interaction
750
formulations
Wilcox
fecal
##ailand
Weight
gather
Extended
ends
Bab
Hass
##omed
##246
tandem
2b
ba
##house
Gly
Korean
##488
##ortion
AO
];
striat
immunosuppress
introduce
ingr
canal
##244
##uity
##lit
Fast
contraction
VM
LDH
##ferroni
##976
willing
##entists
##oric
##L4
##273
1088
microf
##aved
##ws
##edia
switching
UN
Proced
grateful
GraphPad
##179
Bow
##anial
##idelberg
##adj
Mill
##255
parametric
prepare
##cam
Therapeutic
##968
##band
endors
Vitamin
Occup
remarkable
S7
expectations
##402
Bir
##Pro
genotyping
##142
Adult
##roid
##HP
chart
actively
eg
##189
[;
usual
Fur
closer
550
indication
Ech
dl
[;]
398
##ENT
honey
scar
Jans
labor
Drugs
##860
##otrophic
Ess
fibrillation
Boston
##268
personality
regarded
olfactory
Net
Vin
Stev
mathematical
Grad
##Ts
seal
immunofluorescence
Agriculture
372
disadvant
##F3
malignancies
Refinement
##wer
Simon
refractory
Meth
##usive
surprising
Biosciences
##384
Multiv
EW
representations
BDNF
BK
Carr
##ivity
##249
##blast
411
Mt
arms
physi
##arval
Contr
malignancy
demands
vaccinated
##ygiene
triggers
Brand
damaged
bab
##SI
##803
managed
eventually
Upd
Fish
##enson
SAS
charged
McD
households
Targeting
Domain
reductions
]-
Reprod
LU
UP
##etus
##ulator
##osphate
Whole
##omial
arise
TRP
restrictions
Urban
##nis
nucleotides
374
##uo
losses
Earth
cyclin
Aqu
Present
collect
Va
##253
Scott
upl
##zing
##ente
Cardiac
VC
lock
1970
EBV
buffered
*,
said
tRNA
scaveng
##list
prevented
Xing
perfect
tick
##azine
##Public
##param
pathophysiology
##ipot
##975
Bonferroni
Universit
chose
engage
##atinib
Sensors
vox
Inflammation
routin
intellectual
etiology
Gab
332
##ibular
Tab
512
proinflammatory
Enc
Xiang
competitive
##jee
##239
esophageal
##orms
branches
pelvic
lumbar
##len
##rovers
endocrine
athletes
assembl
nitro
t001_Table
regimens
cytochrome
ionic
##hara
IB
##ensor
compan
hematopoietic
probabilities
Swedish
Ct
D3
biases
tumorigen
clinics
Middle
perhaps
Weiss
tensile
subpop
irreg
stenosis
ingred
tomato
integrin
taxonomic
Mob
Annual
anthrop
049
say
##eptides
winter
##aturated
practitioners
neurom
##like
thi
chim
HbA1c
##966
Leon
proof
coordinate
##aux
eliminate
##805
##otoxic
Fas
##adesh
preclinical
Comprehensive
bootstr
412
##935
uterine
341
veter
Barr
Eastern
##iser
##957
##ournals
Steph
##455
employment
derm
##cy
Neurosurg
Pel
deficit
disapp
univariate
handling
bath
##dh
##974
accounts
Econ
Xin
thoracic
##ilton
351
juven
Latin
roll
##actin
031
engineered
designated
cigarette
recycl
##389
Bad
##pleted
arteries
partition
remission
##cha
amph
361
fertility
Ay
Pit
capital
Seq
Reproduc
insects
discrete
PMC
attempts
##feeding
interplay
Spanish
scaling
iv
##oform
##pers
##ayers
selectively
CoA
Italian
Pediatrics
Inflammatory
##Ca
els
##269
##pects
##lund
coronavirus
describing
consumed
albicans
trade
Personal
biopsies
##mad
##274
agarose
##222
..
HW
Sav
drink
Molecules
Antimicrobial
##ibilities
Leuk
cloud
Fc
counting
Norway
Oxidative
Burn
Singap
Chic
SMA
proliferative
Northern
Implications
##ASH
Nord
##936
Barb
##fortunately
bases
##upus
##ochastic
Spearman
##OV
##process
Prediction
##enh
Ward
Ultras
Suzuki
Oliveira
inadequate
##idden
Trust
Programm
denoted
Computational
JY
transcribed
##erglyc
##baum
projection
adoption
##rad
PDF
Isra
classifier
##enium
##abolic
##aters
Images
stresses
DSM
tro
microRNA
##quartile
pretreatment
functionally
##485
##ostatic
indicative
habits
Enhanced
##terisk
Cab
##iler
diagnostics
##oder
decade
##oge
Allen
Malays
##umi
rhiz
Ana
Mortality
0003
Blue
##uvate
termin
Skin
porous
woman
plans
Machine
selecting
:(
FAS
##ocin
reinforc
Buch
##omod
Variable
-)
##229
district
Active
ole
1098
##otoxin
thrombosis
BLAST
Thailand
exclude
lowering
Mechanical
immunobl
##atio
##344
deprivation
elsewhere
UT
ta
1086
Vascular
##uloskeletal
Sao
volunteers
##ilt
names
Son
##omerase
##807
##ematics
shr
##465
immunodeficiency
##SO4
transporters
precursors
MU
##stances
spermat
conscious
##278
Heidelberg
Kat
protects
glioblastoma
tables
mixtures
##yel
C24
##din
##x10
inhal
Demographic
haplotype
evaluations
PFS
heterozygous
Holm
Singapore
OCT
homozygous
##674
APP
hear
Nrf2
immunological
owing
BMD
##bp
##gren
symmetry
steroid
Gynecol
##St
##enopausal
hospitalized
3B
##bec
##une
##183
Prin
Sir
##ranial
##day
strengths
Gong
##uripot
immunore
##257
tropical
##956
##CCA
AMP
ortholog
pixels
Kob
L2
##234
lived
historical
revealing
Severe
James
lot
##kar
##evier
##503
deeper
radial
##259
NN
Temperature
##Al
/(
##aceutic
hypers
EGFP
predis
coordinated
Zhi
##X1
##uled
##ceeding
##378
1055
antif
##tinction
Wan
paral
going
FDA
##onduc
Gross
comprises
##S2
##arium
circle
##utable
##963
Neuron
##iopathic
acceler
445
photocatal
alloy
Prism
Ever
Brad
covering
vi
concomitant
Rot
gained
molar
dehydr
lamin
posts
Various
##GE
Palm
##orubicin
cutting
Lat
expendit
multicenter
2c
##409
##itance
C23
##ithelial
drain
Gastroenterology
prioritiz
Magnetic
##357
phospho
acknowledg
implementing
##ww
331
Griff
Mycobacterium
acoustic
##192
permanent
evidenced
Bank
Lem
Kun
empty
Som
##254
##ogel
##HI
accelerated
arrh
##nutrition
##agr
Laboratories
crops
##bone
##131
ALT
ribosomal
##essation
##iong
##285
cros
TV
##FAs
##achi
Alv
Acqu
##uitary
Dh
Variables
urea
mating
behaviours
ALL
frail
Full
nt
intense
Psychological
blockade
fused
##untary
Progn
Surve
somewhat
##933
Cult
Clim
Vision
Klein
microscopic
Zeal
##unnel
covers
referral
employees
Radiation
vegetation
pharmaceutical
Holl
son
##asa
purity
teachers
Dental
df
Stock
Endocrinology
globally
##aliana
doped
775
penicillin
##E1
##oprot
pollut
cooling
Hung
Schne
Initial
##static
squared
diminished
##WT
aort
traffic
abstract
##igenous
Glut
##roplasty
##entricular
Sy
##jan
Plants
rhythm
##958
389
psychosocial
##ethylene
prefrontal
sera
Cord
wider
Exposure
eukaryotic
Government
TIM
##309
##808
propagation
##ika
454
##ivary
MSC
exert
Now
##806
##rett
Processing
intric
##fulness
Findings
##wang
##atosis
##atern
faces
genomics
##ikawa
Cx
lane
##titude
cot
Campbell
##drug
Candida
##rine
nucleic
sulfur
CU
lists
anesth
##estr
Rao
dialysis
smoke
##ercetin
Receptor
automatically
Behavioral
operational
sheet
monthly
seedlings
##agers
serot
IJ
Solid
subm
##emporal
establishing
reality
afford
Zealand
DU
inactive
osteoporosis
examinations
Cul
Concentr
pharmacokine
tur
##GR
placental
FITC
pyro
##cht
Anxiety
Arthritis
personalized
g001
Ast
endoscopic
balanced
415
##377
##du
##252
biotin
##aments
viscosity
NV
##place
Sequencing
adul
##perg
Schul
withdrawal
##isson
Var
Hamm
denote
RAS
##rotic
##ifiers
Dermatol
diarrhea
##OB
##imi
##imetric
reversed
##epartment
##yne
gam
Pic
##real
comes
##mitting
##V2
##uminescence
##overty
Ja
##quez
carcinomas
migraine
pet
Obj
Suc
##inery
1063
VAS
##988
##athan
A549
amin
disparities
##ationale
mitotic
Robinson
Kin
dest
##f1
##lipidemia
##araj
##genesis
mounted
420
Eye
##onuclear
##availability
Syndrome
Microbial
Nigeria
spind
postnatal
Chicago
provider
indirectly
##orr
##509
flank
controvers
##mond
Stan
hypoxic
##Ph
Obstet
conformational
filters
currents
spectrophot
##oping
soyb
381
Symptom
soybean
Bat
shoulder
cystic
##aci
motiv
##oval
Inst
##anta
solubility
recipients
475
##work
carotid
filament
resident
##Ag
peritoneal
Amster
##b2
##ocular
ow
jn
joints
##973
403
Mr
bit
bacteri
preparations
Marc
positioned
reproducibility
##osure
Algorith
pull
##rosp
Arm
065
Kra
##rier
##onit
##ilis
##376
vacuum
Discovery
folding
Los
##yer
##orum
##ilia
##etta
frames
leave
##odem
##pend
##onomous
Amb
positioning
Biomark
dyst
Does
423
pari
tuning
447
##301
TLR4
Amsterdam
##705
##MD
modulus
cultivation
focuses
##yi
Expert
Guan
prenatal
##iciencies
##tinib
larval
##alliative
firing
##Im
Gmb
##FF
Hsp
5000
ace
##263
consumers
sa
##985
lattice
##su
##ilst
systematically
consultation
##267
Arth
Glob
mosquitoes
1C
##amy
reticulum
##ygd
Biosystems
neuroim
##iga
##457
##rely
Portug
Elsevier
holds
arginine
mutagen
##partum
Wilcoxon
E3
thaliana
seizures
##idade
Paulo
notice
Dunn
blast
Geneva
homogeneous
##939
##onen
submission
Robert
unst
stabilization
vulnerability
NAFLD
##aceuticals
##487
Roman
Takah
exons
Biochim
##ospheric
locom
##374
Immunohist
##eworth
invari
##444
duplication
Lastly
illustrate
371
##GL
dedic
crossl
glutamine
IK
Nar
4a
Monte
Veterinary
medicinal
##tsch
Egg
PLA
played
foss
Ethn
Reporting
began
##acher
##timal
##987
Randomized
##erver
colored
tabl
Agric
TAB
lives
bright
Morris
EX
Qian
FV
differs
Volume
RCTs
##283
website
restoration
Binding
fulf
sap
##kel
lag
neoplasm
560
Pregn
conceived
Nonetheless
cessation
##HR
responsiveness
##964
fate
KK
entirely
##ados
bypass
CCL
Monitoring
Testing
Mohamm
Subs
Epub
##----
436
Baker
Viral
##502
imbalance
nitr
Wein
osteocl
Rou
382
interquartile
388
priority
Subjects
unexpected
ZnO
DQ
creation
syndrom
Burg
##ibrated
##acer
manif
Radiol
##466
APC
consuming
mC
Murr
##302
synthes
##ensional
##ball
Alexander
##orrect
staging
evolved
Texas
Ju
Matth
Selection
Rock
Size
##467
vast
Limitations
##roviral
reviewer
##RL
##wen
Insulin
AMPK
Georg
projects
modality
##oglu
GmbH
dissociation
Wind
INT
Sou
##plements
Pathway
##tructures
477
##ND
attitude
dog
##aperitoneal
6203
5A
##carb
##456
Spatial
555
Ling
merg
stomach
labels
429
##Hz
plaus
positivity
1023
disturbance
Nursing
mtDNA
##irectional
ACE
Injury
##349
EST
Kenya
emp
##902
perox
falls
kcal
texture
pancreas
Lit
stratification
##ience
aggregate
atmosphere
Nanopar
mirr
fly
transpl
summer
Categ
personnel
agonists
##burgh
Belgium
deline
Streptococcus
2s
470
underestim
retrieval
##ears
mm2
eosinophil
##orp
##annon
saturated
##eworthy
Lig
acetylation
##omere
##iliated
chol
##477
Firstly
Peer
485
email
##959
Pow
cd
www
glial
clarify
exponential
Collection
expertise
tubulin
tea
##espan
##ptomycin
440
401
Less
escape
##AI
prosth
Linear
immunohistochemistry
Dub
##abis
glaucoma
##934
zones
Shap
niche
Sid
irregular
##GB
lasting
CAM
##portion
harmful
CYP
angiotensin
##asian
##ocompatibility
##ener
##berry
Healthy
suffering
regulations
Qiu
##parts
dB
##utt
ranked
Improve
Dynamic
AKI
emphasis
##odontic
touch
approximate
interstitial
reductase
choices
##EMS
660
cirrhosis
Lai
Sacchar
distilled
##operatively
##ayashi
##358
rigorous
EGF
FN
PTSD
Arn
Experiments
organizational
cf
##864
Emergency
nitrate
supernatants
Mos
WW
Actin
asymmetric
Moderate
photon
hepatocytes
##akr
cutaneous
occlusion
Apopt
##inflammation
427
Diss
compatible
neighborhood
pluripot
0022
returned
contrary
fragmentation
##oskeleton
##avir
privacy
##ibb
H12
Nich
##nexin
##802
Emerging
##asone
Maria
##233
##atitude
##NO
043
Strong
boys
##pore
habitats
##formin
##141
Glc
upload
##382
Modeling
cy
t003
AY
##angements
042
Action
##468
##473
##olars
##284
433
Deg
##neys
##243
HEK2
Federal
relig
haplotypes
##enty
##enstr
trafficking
HEK293
runs
antico
atypical
Cha
biased
defining
exploratory
che
0008
##977
##pectively
Ach
disag
penetration
dens
##uer
deng
nonc
##aded
concurrent
nanoparticle
bold
****
phone
aa
nemat
percentile
##1000
##299
##bar
coinc
transpos
radicals
postm
Gray
Hend
##iders
407
filling
##atinum
Overview
Cooper
##LV
STR
##odend
learned
parietal
Haz
contextual
driver
##yrin
##entory
##H2O
unchanged
chemokine
Combined
Mamm
##ders
Wright
undertaken
##954
Qiagen
ratings
obstruction
authorship
recommendation
resemb
intram
Bangl
000000000000
Integrated
God
##rev
##ardia
Exc
##355
##enna
bridge
wing
price
##182
##oxacin
Reverse
deemed
ankle
##electr
##igibility
##ticides
Princip
SOC
Diaz
Ish
Tanaka
spring
##olus
alumin
##arded
417
fell
##367
KT
##wart
Zou
expand
promise
flight
##ocys
EMBO
liv
papill
##isely
reflex
S100
##thood
lethal
##encephal
oncology
Ric
Instead
ATPase
SLE
g002
Arter
Pakistan
##804
399
tumorigenesis
Jos
uncom
ABA
Gran
##ilization
Limited
Alexa
multiplex
paraffin
fuel
apart
ros
Block
##ryl
avoidance
Trauma
Accuracy
##CP
Finland
respiration
Arc
Vo
##989
Ell
##GAG
##463
nicotine
##matic
##ementioned
##iman
becoming
chron
##ropyl
correspondence
walls
UM
Kap
peroxide
##289
##478
Together
ALS
dengue
Unlike
##458
##279
Levels
slice
synapses
Corn
Jian
##a0
##yclonal
Twent
##866
teams
##abi
##irable
PY
##akh
stranded
5011
##fish
Rate
b2
##Br
Anim
silico
Fus
cloning
##entistry
##pot
immuno
polyc
Centers
SBP
amplic
##953
##DB
##itabine
standing
Incidence
Che
afor
CH3
microbes
TCGA
##pus
investigators
sarcoma
437
entered
##tham
WL
inorganic
trap
doing
##Con
9300
reflection
gate
aforementioned
##366
nodules
##Bi
gk
tac
calls
##984
Elev
CD11
stakeholders
##kov
modeled
##NG
generations
exer
lithium
attributable
##arial
##ositol
##URO
flavonoids
Hamilton
silicon
##eps
mAb
##zol
##atellite
mining
mechanistic
##mu
##xy
##ionic
##argo
Description
RSV
Task
##coming
##henyl
Tet
printing
##Seq
recover
##agner
Immunity
digested
0002
Developmental
noc
##iP
Analyzed
tended
hinder
##ubation
viewed
Site
boxes
Resid
Radiology
Approxim
##adel
conditioning
sib
yl
hypothal
##icius
Performed
##242
Read
sized
Cardiology
attenuation
Pas
##itudes
Fourier
1600
##ulent
Arabia
Those
##365
ORF
Sea
Lar
MCP
originally
Pulmonary
Fort
##ticed
projections
##si
##iani
##809
##aminergic
iP
eGFR
Chand
relies
##orylation
opinion
Ker
stent
Decision
##mut
Muscle
Biot
responders
Gard
Pass
##iper
refined
affiliated
preservation
rend
##979
ger
##udden
disl
ICC
Wallis
Mart
##adiol
3C
##bra
S10
differently
Generation
##354
applies
##2A
##tisol
excision
Gir
Murphy
##SM
Raw
##ifera
##retroviral
##tracts
germination
##elm
Working
mention
convergence
conditioned
jm
##868
accumulated
sufficiently
grains
solve
Nelson
##inv
##elian
ign
decided
kid
##ruption
subf
3c
##969
Auto
delta
hypertrophy
Decre
##state
##464
Artificial
NIR
impacted
translated
pocket
Chat
##tidine
##342
##west
##abel
##251
coex
dihydro
##475
430
439
570
inflammasome
Percentage
cities
neurotrans
CMV
Vas
strept
MRSA
Recomm
p21
MDR
victim
cas
##quin
cytosolic
391
favour
things
##airs
TABLE
Mik
PRIS
Wrote
backbone
##p2
psori
AQ
##otom
commit
##obi
Nutrients
##aguchi
workflow
neuropsych
infrastructure
Kas
##edom
##openia
severely
Israel
Unfortunately
Datas
epiderm
friends
402
McM
##incial
annotations
H1N1
disturbances
1500
##oplast
Swiss
restr
trach
epitope
Krus
Sad
determines
##pection
##entary
##ourse
##oxylin
##ampsia
recipient
arrhythm
##_00
##343
Bis
##454
stimulates
elicited
##itate
Daw
##474
neuroprot
Parameters
e100
##tilis
##posal
MPa
413
Milli
answers
TBI
deletions
Fischer
superoxide
soils
##ionine
##azar
tap
metalloprotein
bring
fn
##GTT
##aea
counterparts
sar
span
453
##ulum
4B
##stad
1210
##867
##yptoph
adrenal
Band
metagen
Pharmacology
RNase
trypsin
Schneider
1960
rings
##aque
coagulation
Observ
shapes
doubl
glands
Bao
proteome
adulthood
##jing
##odic
allerg
ADP
breastfeeding
Twenty
##ailed
Extraction
conditional
utilize
Trials
ascertain
SPI
richness
Protection
Beta
##inin
acceleration
Triton
splice
##eted
##401
stretching
Dou
game
##ACT
##plastic
##SCI
##ysaccharides
Transcript
amygd
##865
political
dioxide
transverse
generates
##359
sen
##pf
string
glycolysis
BBB
incorrect
deform
Status
E1
##iak
Kenn
##umental
rectal
stands
literacy
Pad
relations
##FS
RAD
operated
Electronic
gov
(>=
lifespan
chaper
##otemporal
coherence
additionally
weakness
unpaired
##ontitis
##itinib
muscular
Renal
0005
Fe3
arbitr
419
UL
cyl
Host
Solution
Vand
510
bif
college
Agents
Herr
HFD
geometric
##edy
efflux
pa
||
stochastic
conservative
ju
foundation
hyperglyc
##459
v1
##262
versions
##apsed
Harb
##ecl
##acetyl
drivers
slower
multif
electroc
##MM
lupus
corticoster
rescue
obstac
Medium
vibration
confer
unus
##ods
##489
Interactions
Uganda
sarc
##oft
##ivan
1974
##501
CD45
##476
embedding
adenosine
WG
platelets
##imming
OE
409
subsp
##469
##BMC
wastewater
##entiation
ars
##eca
##ashion
acyl
circumference
benchmark
moderately
vig
##983
microglial
Technical
Phylogenetic
499
##Cl3
intraperitoneal
Cham
phenomena
5D
##rie
444
GK
Hyd
amongst
suspended
1053
##ynch
circumstances
flowering
##aris
##atsu
log2
##zyk
##ativity
Manag
vegetables
official
taste
422
##unch
Cas9
irradiated
monocyte
alongside
big
depleted
Computing
advance
Criter
##otechnology
discrepancy
duplicate
pituitary
Shan
Maximum
Tyr
##idazole
##ISH
##olymer
hope
##olf
Traditional
herpes
Prospective
energies
##inatal
Adam
##yles
Phill
Reduced
##onitrile
0b013e318
Bax
Takahashi
Cauc
Bet
FDG
##tities
##ipping
leakage
##utter
reversible
##othelial
Plus
Gord
Cogn
##utum
##oplasma
Continuous
Road
SNA
comply
kernel
Lan
Tc
##272
##CE
commercially
##olia
)--
indications
Bangladesh
##484
sorting
Ve
XRD
##ulmonary
prescrib
Adap
alignments
##Life
Th1
proceed
Medi
vesicle
convolutional
plaques
HCT
V1
##373
Again
##immu
Pancre
ni
TNFa
##kinson
Mechanism
Dun
##osom
extending
mediator
Benn
office
Secondly
anaerobic
Exercise
##p1
KG
BMP
##atonin
executive
##151
brid
Lake
Penn
041
Hansen
##282
fimmu
##kes
outbreaks
OV
modest
arising
streptomycin
,...
##ayama
Ran
bund
varieties
##901
operator
compartments
##wave
ordered
autophag
oscillations
endpoint
transportation
1R
##F4
assuming
S8
Wel
tol
##UP
antioxidants
Cron
notion
odor
075
ASC
repression
consumer
Nam
Rheum
Tanz
##pathetic
Liter
extinction
intim
proteomics
Likewise
immunohistochemical
##igent
##choline
destruction
##ogue
##graduate
cleaved
EK
##oti
contaminated
##453
looking
constitute
sides
melting
Oc
##isen
Implement
SCI
Responses
gestation
IBM
##iguous
modifying
polyclonal
schematic
passed
Tol
##oga
idiopathic
plated
cue
##yptophan
pressures
##ovial
##idirectional
interactive
##ahoo
Smad
clonal
internet
Significance
Amino
envelope
Zi
##BT
##erph
opt
MTT
corro
##echanical
Delta
H10
Austria
spray
immunost
glucocortic
##ephal
charg
##inea
Hugh
Improved
dramatically
Tb
nanocom
Hao
WD
##pic
gelatin
##ommod
purple
magnesium
desc
##osyl
Adjusted
residence
tubular
Ferre
520
Neurobiol
defective
porcine
immature
loops
Peter
topics
T2D
##plosplos
killing
CD44
routinely
##mod
IgM
Upper
Waltham
ling
Shu
Mini
planes
circuits
Reson
IE
subtilis
postpartum
Wagner
ultra
epitopes
salinity
2x
##rinting
Marg
##Co
rupture
Rud
ging
Taq
NW
1182
1973
##avage
NET
##k1
Organic
Thr
##281
demographics
query
searched
passage
jama
wise
##iella
392
CCA
aorta
Home
##1932
Kaz
Jensen
Ocean
Ry
spik
exercises
H8
fashion
Abcam
Cos
interested
RPMI
NCT0
mini
caud
##posites
challenged
Qualitative
Fluorescence
LK
proteomic
}$
biofilms
cardiomyopathy
##anne
##363
-/
##oning
spaces
Gener
)),
competence
portal
Vide
Opt
arrangement
##oxygenase
haemat
heparin
Brazilian
battery
Challeng
Muc
intermedi
nearest
Jing
ded
Lei
ageing
statin
##edes
##333
FACS
Sato
noteworthy
##gramming
Gan
really
junctions
##itan
Formation
##ompl
registry
deal
##infected
Mao
##esare
##evic
volatile
neutralizing
Rap
##onel
##forms
Lv
PAS
island
dominated
assignment
modify
repetitive
ROI
g001Figure
apparatus
g003
Best
bending
immunosuppressive
##Fe
Defin
##ilin
promp
Hub
##py
lignin
Ratio
Collins
saliva
H2A
polymerization
acetic
Eb
##otherapeutic
century
##181
trich
GFAP
db
##hyd
##abd
##2013
crisis
kidneys
salivary
##ingham
tone
Asp
Murray
Glucose
vibr
##mat
placenta
##232
incision
immunoglobulin
Consortium
ammonium
Hash
585
##tan
attempted
Asperg
##ograf
Indep
Sport
Mack
cup
####
Hybrid
yahoo
foreign
Protocol
##opos
superc
integral
565
##483
497
##394
Koch
Pharmaceutical
Complete
lies
beg
Biochemical
jcm
421
Map
rejection
neuropath
programmes
ITS
414
Xiong
Trich
reciproc
substitutions
MX
cours
##neur
##GO
##SK
##outs
unrelated
robotic
##odemographic
Master
timely
SCA
##acs
##889
##onto
ago
profound
precisely
451
Metal
Malaysia
ineff
dysregulation
methodologies
origins
##171
poverty
##aiting
integrate
Silver
Hed
##eger
Adams
ecology
enroll
=-
##izz
Optical
dedicated
##ophore
quantities
##enger
excitatory
##asic
Saccharomyces
Kos
tb
##uns
encountered
##Ex
##292
Macroph
repository
YC
peroxidation
cooperation
##869
5a
##osperm
chr
##eckis
##tebr
Intensive
##astatin
spindle
##men
cel
hub
compensation
hidden
Corresponding
len
floor
bacterium
Merck
Team
companies
Text
##GAT
Ahmad
Mary
came
##empor
Hypoth
underscores
inconsistent
rins
##aram
455
catalysts
alters
Ens
Jose
t002_Table
titers
Search
TCA
##GGT
##olk
merc
##oen
Pes
##261
Colon
YS
ijerph
antidep
##Pa
##ething
septic
495
Tat
408
episode
650
Pileckis
era
abd
SiO2
Marine
S14
friendly
endorsed
Mans
aw
affective
generaliz
G3
P4
exceeding
propensity
mun
outper
leadership
PKC
Jim
PSA
##acterium
topology
condens
##a1
chor
##istically
dividing
hole
##appro
##phys
suppressing
OL
Adults
machinery
406
##psych
##brain
Esp
anis
##Gene
IgE
familiar
Io
Iw
server
biodegrad
404
leptin
##amethasone
Range
WI
phenol
ESI
List
multidisciplinary
ensemble
aberrant
577
vin
##life
##rof
Vector
511
unstable
medicines
*******
phosphorus
424
fabrication
corrobor
NIC
tric
dissemination
overexpressing
style
##707
technological
responded
##arvest
serotonin
Hos
encompassing
researcher
accommod
injured
##R3
##keys
Ath
Methyl
cone
##ecan
##uscitation
Membrane
##Ac
distinction
Very
##elia
IgA
Bren
Dutch
gamb
HV
distinguished
R1
##gestion
##oreg
feeling
atr
Antioxidant
Thor
relatives
##essor
angiography
##borne
Ara
juvenile
spectrometer
recons
shifted
antidepress
s13
##auf
comfort
histopathological
PM2
S16
##rex
Chong
termed
engaged
semic
YH
master
##706
endoplasmic
sacr
Week
applicability
deterioration
1172
Grand
##XS
pigment
##ayan
##avan
##ephone
lymphoid
ja
MAS
Calcium
540
Moll
##479
curcumin
Semin
flask
collective
George
unlike
Dose
##priate
displaying
##eung
embol
##oom
##ostics
construed
reconstructed
biodiversity
##863
418
Kruskal
Living
yielding
laparoscopic
##wald
Intra
accompl
kHz
Affiliated
Economic
transcriptomic
housing
##eria
biogenesis
Turkey
Pros
##ilding
cultivated
JNK
##achment
heated
fabricated
##istant
##copenia
Pand
probiotic
PTEN
initiate
Art
ligament
Call
anomalies
MYC
Mitch
ke
##taining
collaborative
##birth
##221
anatomy
biologically
dosing
lysed
Ruiz
##tail
Viet
phosphatidyl
Individuals
Lac
continues
immigr
blinded
Aden
conception
Metast
##bow
minority
broadly
##irty
skew
illum
##~~
##381
##UD
18F
096
HepG2
crystalline
Victor
##iezo
finite
owner
mm3
H11
turb
##yna
articular
addiction
sustainability
Muk
##353
satellite
aliqu
prey
##yclic
hemod
##SF
PBMCs
thous
overexpressed
pep
##X2
conduction
Columb
Groups
##develop
##avor
##easing
##ras
missed
Mons
incorporate
PPARg
expenditure
imaged
introducing
##369
freely
Stewart
pose
##ickel
intricate
Yet
394
Pharmacy
cardiomyocytes
##tina
Like
##anyl
##399
##yrate
oocytes
##rac
toxins
foci
##holm
courses
tor
heme
sorted
Nephrol
##364
##owship
join
Hepatol
LW
sudden
reli
company
##omegal
invers
ATG
)].
nc
Tropical
##iso
##enstein
rodent
orbital
PhysRev
Emotion
narrative
Wi
annealing
##del
##B3
alanine
KI
Sheld
Cou
citrate
laboratories
pulses
##abet
poorer
syndromes
##adition
##PES
EPI
##tini
visualize
familial
ecosystems
##HT
disrupted
forums
dotted
##ogaster
575
bootstrap
disappear
B6
##N3
farmers
##CO
##oxif
amygdala
incid
##lamyd
Kelly
advancements
##CCT
suppl
discover
pyruvate
neighboring
443
eastern
##605
##timicrob
Sund
##uty
##eption
449
essentially
multivariable
potato
473
Angi
curv
##sey
GV
##onds
##raisal
Duan
blank
431
DOX
Urol
##inet
pulp
solvents
Cole
##ilation
strongest
PAM
503
fluids
drafted
plausible
arc
suggestions
Dynamics
leaving
##yroidism
voluntary
g002Figure
Cases
##eras
##zel
##verat
offic
Matrix
leukocyte
SIRT1
enhancer
intracranial
##ejun
Cook
agriculture
##room
Interview
Stef
Comparing
campaign
416
Ven
Smoking
echo
keeping
lib
##bul
isotropic
Apo
##449
Apoptosis
sharp
microm
bioavailability
Alber
##onePLoS
OnePLoS
ONE1932
stabilized
6203Public
ONEplosplos
Schwartz
ONEplosplosonePLoS
]+
##print
multil
colors
Haem
History
##379
##The
Harm
glomerular
attractive
estr
467
electrom
##ximab
a1
videos
rodents
##floxacin
Turk
fetus
##agit
##stone
somat
programmed
##itability
Consum
##veratrol
impairments
probable
Ion
##riction
anticipated
doxorubicin
##ubin
+/+
##estock
apo
Hughes
##606
##egel
easier
Tro
priming
slowly
frailty
chemokines
informative
municip
##urus
493
consol
##biosis
spir
##XR
Bass
1078
entit
Sum
##Ar
##aten
histology
##do
responding
##liers
specialist
##embly
##upuncture
##onso
GLP
Unc
Pax
BAC
##ressing
outputs
collecting
FTIR
paid
##essive
TME
breathing
**********
505
##osidase
##uta
assayed
approximation
legis
searches
Bert
##tica
490
##owitz
Antimicrob
##anabe
characters
549
##trate
env
Mech
TBS
Olig
Verm
##enses
##iguing
cultivars
depart
Carol
oncogenic
##oplasia
Iron
earth
prompt
something
Associations
lumen
electrons
caffe
501
testosterone
>).
##Xiv
##ainen
##ublished
Maj
char
hsa
pd
EQ
##don
antiretroviral
##603
##plot
##cap
Edwards
Sud
FGFR
##iosis
515
Bj
cu
##litaxel
O5
oxidized
noting
flap
##type
Transform
##micron
##OE
##NEURO
Bah
##flav
organoids
##ontol
transforming
TOF
##AP1
Cry
Mang
optimizing
##ritin
lncRNAs
##car
##quir
##708
##ESS
tab
Place
C25
carcinogenesis
phylogeny
preceding
TFs
055
seizure
C26
Sed
anonymous
colonic
Turner
classify
##uka
confirms
conjunction
delays
sweet
cows
Toll
535
Bil
inpatient
angiogenic
##alis
Adip
ligase
850
##rez
##esarean
proteasome
clinician
Challenges
##oso
##empl
,...,
hypertensive
Networks
Mutations
587
Poor
##mium
MDD
##ython
##g1
2147
Obstetric
Tao
Efficient
Declarations
Neon
Clostr
eLife
##191
Primer
Alternatively
encounter
loads
alleviate
borne
Boy
Norm
evolving
ICP
##c2
visceral
rhyth
regularly
hygiene
supplements
457
VD
guaranteed
525
methylated
pyram
periodontitis
##FR
Chest
faecal
##alo
##omiting
##anco
Laur
Thermal
Ghana
##opolysaccharide
inactivated
Diversity
Assessing
095
Bour
Dual
trunk
##ectiveness
##982
supplied
625
pM
##omi
Acet
Physics
appropriately
abiotic
purs
434
instrumental
tendon
mang
##ahan
confirmation
Framework
sacrific
ocean
##acycline
##Health
##agland
perovsk
aquatic
hands
NEJMoa
surgeons
hern
##agan
ubiquitination
##role
CHD
##eptors
##oadj
##atching
Davies
avian
preferentially
620
Gor
Watanabe
cough
##arith
Hodg
067
menop
neighbour
sole
Controlled
Torres
negligible
NOD
##urations
463
Morgan
headache
shRNA
developments
ranking
##icidal
486
Foster
468
cotton
gent
Neurophys
TAM
Iss
%]
##dong
##amel
Diagnostics
##omavirus
Lars
Shao
##tran
therapeutics
KF
KCl
##482
nl
cortisol
patches
expanding
Rus
supportive
##beit
administrative
Phillips
Hein
446
##704
feelings
McN
Manual
Clarke
465
ic
detrim
685
?"
##riers
Examination
conflu
lesser
centres
explicitly
##oadjuvant
##onectin
adequately
elucidated
maximize
Ferreira
##azz
encode
##isp
##phone
PCa
Nielsen
##otubes
Modified
Bud
EPS
Reduction
Rural
ly
Cold
CTC
welfare
forced
##452
##mo
##mittent
Multivariate
euth
##reland
##vo
ventricle
brought
##vie
Oncogene
admissions
coil
##azol
##urk
Improving
weather
definitive
gradients
pollutants
IH
}}
Unknown
Tanzania
Util
##ECT
##omnia
##pecies
XL
determinant
##urable
drives
altering
Vers
emphasize
Ultrasound
generic
music
progenitors
Egypt
stretch
RBD
##TO
##972
detrimental
waters
Requ
Th17
inverted
inspection
##494
##STM
hormonal
dial
soon
corrosion
initiating
designing
Tryp
##ools
##hoff
##uclein
ulcer
disulf
H6
Alvarez
Migr
covariance
broth
constants
nas
##volution
ASA
chel
reprogramming
ovary
##ictures
cigarettes
trib
periodic
HRP
##rogate
sulph
platinum
argu
Saharan
acknowledged
##wich
thanks
relating
##othermal
##romycin
District
1099
428
##obe
anthocyan
ease
urgent
Aud
##plicity
morning
Lack
##885
spherical
##agittal
Mis
##ewski
rationale
inability
Ontario
##affected
SOX
KW
melanogaster
arthroplasty
thinking
signed
PAH
##ensors
##604
##oneliness
##plates
cohes
comorbidity
trab
##666
##kary
clamp
##607
gradual
Ireland
palliative
vor
##oal
##Ss
neurogenesis
Construction
##itating
426
Sat
LED
programming
530
##vation
##icide
alcoholic
##ipe
Bacteria
fist
##231
angular
Multim
EO
Regression
1590
neuropathy
Tib
bad
liposomes
Aspergillus
ile
intraoperative
m3
Coord
##aq
Benj
releasing
droplets
NMDA
adhesive
Indones
pointed
##AAG
musculoskeletal
Approximately
freezing
suicidal
##fe
##LY
##ogle
HSV
Vit
459
Compounds
##antib
micron
##NAc
Prognostic
##opy
##pol
Longitudinal
clarity
cerebellar
evap
##ughter
secretory
infl
Nakamura
##oradi
electrophys
Exploring
509
##chen
Prop
immunomod
endothelium
##952
5x
##osting
Jord
##omfort
##499
fertilization
breakdown
Hwang
adolescence
attenuates
3d
din
##brids
##tide
Lag
483
appoint
EI
Pereira
080
Lav
abscess
##ulsive
##iden
##ogh
append
##888
##ais
##962
drainage
527
fifth
province
investment
##p3
##443
461
Bach
monomer
thoroughly
antifungal
bread
##olerance
Increasing
Measurements
##An
##dehyde
androgen
1010
##being
beet
##ieh
##ORT
transfusion
superficial
##haw
microvascular
segregation
Graduate
importantly
fibre
Compon
Gli
Qing
Star
dent
KY
##nx
Influenza
Evolutionary
Rose
dispersed
neurodegeneration
##respective
tour
exclusive
Mess
Viruses
cock
sac
##rical
Corre
Sph
##QTL
##ustin
##ged
##ishment
HRQ
atherosclerotic
Old
##evant
Reviewed
mutagenesis
glycine
ethylene
genital
spanning
##709
Ampl
##regulated
##osacchar
##ffee
County
irre
eliminated
##idelity
Seed
Rehabil
Gibco
Bed
Jak
Mapping
Sulf
##imura
DSS
##FT
Series
Row
a2
EUR
wish
Definition
647
Hur
441
threatening
monolayer
##qi
Agar
degraded
Mitchell
##_1
##elve
mutual
Smart
nmol
mononuclear
Nd
567
Ves
Yong
##m1
Thom
asterisk
serving
Tsai
Principal
indoor
axons
unusual
##tinct
Golgi
Weber
##eterm
attending
Neuroim
469
G4
Win
##ocalization
Selective
PER
##Gen
##362
Bacteriol
packaging
arXiv
emphasized
business
SQ
pores
##ingen
plos
ImageJ
Lau
punct
##otics
pregnancies
Release
Hsu
g004
impedance
##zh
##imetry
capsule
##oi
##atric
menstr
487
pathogenicity
stationary
prophylaxis
Cun
messages
prove
##enda
##illy
Ying
##inska
Subject
##ican
proc
v2
photorec
imply
kinds
S000
##acil
moved
Typ
##faction
##umber
Parasitol
adopt
TRA
g003Figure
Sti
margins
##forward
visually
dispersal
ingredients
avoiding
##astom
##2022
topical
caution
Wit
Kul
##rik
##ynchron
vehicles
Strategies
orthop
Rice
##ausea
CAS
interfaces
Agu
PAN
##itates
receiver
Vietnam
438
gonad
Failure
##Se
##idia
##partate
Dor
##elo
quartile
reaches
617
4000
bill
Length
056
##infection
537
Building
Neck
divergent
Perm
##442
Induction
053
529
gram
rational
##orphous
Millipore
Rav
truth
rigid
axonal
Optimization
expensive
##oblastic
Mixed
675
dopaminergic
contigs
enrollment
517
Dob
oils
solving
Recommend
Th2
ment
physically
salmon
MoS
Chemother
playing
sativ
##etical
PRISMA
##osum
##obacterial
drift
NAC
##inis
##241
hots
##agawa
Sheldrick
bc
##bad
flood
r2
spong
opposed
coastal
abdomen
mp
synovial
523
##igl
foster
##ersonal
surfact
electrostatic
##462
2174
##iculum
##umps
Contributed
##999
519
GAD
execution
hallmark
XY
##ignific
unaffected
Toronto
schedule
cure
##A3
windows
Nanoparticles
489
Missing
502
SAP
rights
Initially
Ty
##ju
microRNAs
Funct
career
##392
##lantic
4b
Hof
##932
513
1242
##608
##ufficiency
##achus
##562
accumulate
KRAS
BRCA1
##bour
##umen
##erent
Communication
probiotics
Cond
ga
outliers
lymphatic
##uric
cow
sedentary
cage
ejection
frameworks
weaker
Insights
1972
Descriptive
compromised
Climate
Bog
worked
Programme
tong
Horm
##roy
##imus
compact
minimally
breaks
054
##332
commitment
##emporary
WE
Reag
freedom
cG
truncated
Cath
Wald
compositions
poses
explaining
Moreno
Gordon
4D
##555
telephone
##evity
##ako
432
discomfort
##lag
##uent
448
gem
dispar
##thy
compute
gross
Express
Recognition
declined
JNEURO
scavenging
bt
##pathy
Karl
##health
464
Written
CD34
##otropy
subcellular
seaw
Published
JNEUROSCI
Products
voice
##assay
conductance
##pson
##RR
##uke
Aer
051
rhin
Sv
##otyped
alternatives
concerned
##orst
Yamamoto
##LL
wean
##formaldehyde
simulate
polarity
eIF
##ador
quercetin
chlorophyll
2105
titr
Prod
noticed
507
Malaria
retinopathy
##esophageal
##icl
blots
racial
##aks
allelic
##arvard
sciences
Location
Sap
theories
##ATT
Zeiss
dermat
##duct
DHA
Registry
YJ
message
VO
microp
##ersed
encourage
TY
##shop
##m2
##aract
m6A
##agle
Delivery
##inae
##ieri
Antibody
1640
potency
asymmetry
ancestral
##801
532
Enzym
Elevated
##atine
Force
catalyz
MgCl2
##A4
counseling
Fi
Buck
gated
Souza
##aemic
apt
Composition
##352
substituted
Price
phosphoryl
presumably
710
##BG
452
Deu
052
Language
2045
80degC
disrupt
Fall
WP
lactic
page
ze
flexion
Vitro
##weg
##ronectin
471
aven
Interleukin
scoping
##clim
multidrug
malnutrition
677
DES
forec
Independent
##iest
trav
palm
interfere
Overex
Content
Highly
logarith
antisense
pod
autologous
Double
him
Spe
##clusive
Precision
Fif
radiological
lysate
regime
665
friction
##ovir
neonates
photosynthetic
##anen
Tween
785
Scot
pools
Dataset
##pn
immunoprecipitation
Kub
contral
667
Greg
tors
PCI
leukocytes
((
EPA
restored
chondrocytes
projected
echocardiography
chemot
Dul
Lane
Systemic
Vasc
Rheumatol
1968
stopped
transparent
isop
hydrocarb
overs
ce
##roll
##ijn
Roh
vomiting
heterozyg
##atti
##entric
matches
Flu
jap
differing
Gn
SES
##optera
##phosph
proteases
subd
Ment
killer
BRAF
Today
eligibility
extends
Reaction
##oya
Perspect
microstructure
Ale
Rehabilitation
655
Why
Run
Inclusion
xi
convers
Physiological
implanted
tibial
sparse
##dd
##ivas
479
Promega
antagonists
orders
anc
LC3
seemed
CCT
Nas
##elect
export
Alter
456
Tree
firm
HMG
##ague
physicochemical
##cein
PARP
##the
##cient
roughly
irrigation
Pregnancy
undergone
##unting
kV
Q1
oligodend
augmented
Fatty
Mendelian
warranted
##hyp
0006
##idth
##plasm
trem
excretion
Transplant
Rio
s40
##icate
5b
Simulation
axon
Watson
vertebral
MZ
sg
##evicius
extrap
Dol
mc
##onics
progester
##IK
forests
lysosomal
##Tr
intens
Algorithm
Cel
waiting
##N4
minimizing
lin
perceptual
088
##imensional
##ologie
hemisphere
630
Flex
stressors
lncRNA
distinctive
545
QC
##encl
Recomb
journals
##tistic
##uzz
##ondo
Leishman
Nanjing
unpublished
##703
ADAM
titanium
configurations
##432
regards
Ophthalmology
Rig
Conditions
germline
tam
##CAAG
ACh
titer
##go
##amen
anion
DY
##eland
whilst
esophag
Flav
augmentation
622
##idential
infiltrating
Beyond
progesterone
hyster
housed
hypoglyc
s004
RPE
##luidic
BALB
Extracellular
smallest
phon
freeze
Update
paths
paraformaldehyde
reinforced
perinatal
506
Kom
##ikh
Org
##ulas
Atlantic
462
442
disabilities
Effectiveness
macrom
refr
Mild
##eves
Past
Yas
##rospinal
##pired
births
Literature
##ostatin
triggering
Die
##IO
preprocess
057
positives
##atil
Helic
640
verification
routes
quench
##achusetts
metformin
weakly
converting
contralateral
Hus
bes
tach
##HM
##eler
massive
Finn
593
085
illnesses
##ecn
1936
cytoskeleton
LAS
places
Khal
Benjamin
##uple
infertility
518
Iz
Sons
aph
##iewicz
ln
##odia
occupancy
Fung
-[
slide
Kine
##thing
##omatous
initiatives
spatially
caregiver
rectang
workplace
combine
4C
Wuhan
##oultry
610
thaw
autonomous
Cycle
##aches
Transfer
##rinted
replace
Sox
Reconstr
offset
chickens
ellip
077
notes
Cut
entities
Tit
##kl
875
##fi
interm
H16
Ms
##imers
##862
Tn
##urin
canine
aiming
Oxygen
constitutive
arbitrary
##oting
digestive
Oly
##879
Video
##wick
##endocrine
533
comment
Massachusetts
##brospinal
##rost
sexes
481
econom
Edited
linker
##KY
P450
##mitter
troph
traces
macular
relate
normality
Communications
CNT
Pav
Check
hazards
##aked
##FE
##2020
Shar
RBC
Zhej
grades
catech
Implementation
nd
pictures
Sheng
##tricts
fluoride
scientists
vertebrate
##ethanol
Guangdong
580
pS
##rogenic
Boh
##BB
overload
##ushing
4th
##VD
Zhejiang
redundant
765
##edo
##609
constituents
458
##Ab
##FL
sentence
Tool
496
ot
##acies
Florida
edited
##entic
Biob
##ht
spr
caroten
discarded
polarized
##asted
466
aluminum
##372
classic
Duration
1971
CON
apparently
##onium
##icht
Farm
##astin
##bu
Though
##ensitive
##achn
ide
Lead
cannabis
wounds
Entom
arsenic
##olet
cassette
rock
##X4
##ignment
verb
##bound
##osol
abol
mitral
heightened
1475
590
mann
##hm
Cancers
OSA
##obs
Portugal
Carlo
536
DISC
Braun
ontology
Cad
chitin
mitogen
catalyzed
documents
504
##X3
tryptophan
relief
optimum
Shapiro
s41586
##odi
H15
parasitic
VH
##ondii
explanations
Schro
##981
chemo
##OLO
##2C
##urium
William
tolerated
adjustments
YT
fasc
##NL
bever
compressive
Criteria
/+
fp
Physic
Ito
nested
Poisson
pellets
ligation
ancestry
595
Crop
pathologies
##me3
artifacts
##vive
##olipid
Gun
Nac
##INT
reinforcement
522
descript
Near
##2012
rapamycin
Hoch
bag
Rahman
##oux
mucin
Raf
View
##ews
deleted
dendr
Liqu
Strain
ANC
Universidad
lute
##WR
##acker
Tregs
Las
pleural
Tar
hydrochlor
##pert
WF
##uin
##enburg
acryl
Spectr
DENV
Participant
474
voxel
CAN
Alternative
Chow
euthan
Intelligence
Hyg
necessity
NADPH
478
Beg
irrespective
Pep
ether
H13
##ogonal
##icus
##931
##uzumab
ERK1
Abdel
Generally
Miz
los
##oca
carbonate
Rank
##ocardial
H19
Salv
tongue
lev
Becker
Numerous
Md
Coul
norms
propri
lacks
jejun
##enyl
Vienna
539
originating
fu
##LT
descriptions
atmospheric
Kobayashi
Cann
GPs
##nar
##702
Virology
Danish
Caucasian
Bac
searching
##acrylamide
Corp
Zo
hs
striking
married
613
scRNA
Retrospective
tends
##olation
edition
homes
TSS
##P4
##271
##tructural
##658
equival
3109
discrepancies
Doppler
S9
##onine
##861
subpopulations
derive
ABI
583
Bennett
5th
##ARC
psoriasis
occasion
Carls
##enzo
ensures
H14
pars
##oxicity
##graphs
Daniel
Pay
NGS
Wer
unn
Spine
##472
advoc
abundances
Memory
Rest
agr
Scha
##oven
.(
Sull
rising
carn
sept
assemblies
Instruments
Simpson
Bioeng
navigation
legislation
myeloma
Standards
irrevers
##431
R01
BCR
scanner
##ovich
diagnosing
F3
Ming
Biomarkers
stic
##opulmonary
##ensitivity
Shaw
sugars
Russell
##iba
##occi
058
surgeon
Joseph
proline
Sexual
Greece
##SH
##anian
Employ
independence
microtubule
Meg
##stalk
IRB
1096
Targeted
521
DBP
fungus
planar
leucine
Olymp
crystallographic
tags
dexamethasone
Carm
YL
##opyr
acquire
##acity
##bred
Google
desirable
594
Brass
559
iterations
curvature
2337
557
514
##itual
Ub
e4
mort
burst
588
##c1
weighed
inappro
marks
Code
Density
##herry
myosin
6A
Saw
covalent
##aei
MED
##ucker
livestock
Din
symmetric
af
aneurysm
F4
stems
##KB
##uto
Cronbach
##worm
##elman
adipocytes
worker
##onyl
Leica
alginate
Diff
##mr
YM
river
ultrasonic
516
##izers
epoch
Columbia
Cass
##ohex
QoL
##ireless
managers
Stern
609
589
dissolution
##enience
cleaning
recycling
Agg
Notes
Mall
615
diaph
##lutin
performances
605
ammonia
kits
##aedic
synuclein
inversion
491
##nick
5B
Sich
Zimm
survive
monkeys
twin
reversal
osmotic
Kop
1969
convert
telomere
belongs
albeit
testicular
##etto
Kro
heavily
card
##box
Thank
endpoints
95degC
Marshall
4103
Rac
##elly
install
Theor
neuroinflammation
gingival
CMR
striatum
Tun
hits
Epidemi
##arbonate
Jimenez
##emis
##bris
##ucher
Whether
AIC
##xia
##entre
seasons
horses
gast
PPV
nephropathy
Bod
##ouri
##onica
ribosome
transplanted
Carolina
testis
066
controversial
##878
##metr
Collabor
Yoon
##amo
navig
##PONE
531
addresses
526
##eterious
Viol
##ophilus
Ultra
##hua
exceeded
561
EMG
partnership
Hua
hemodynamic
Town
543
latest
Bott
deacetyl
##itories
schemes
aggregated
bubb
##itness
emphasizing
batteries
Autophagy
faced
CEA
##olor
intermittent
Perception
498
eu
##010
acetonitrile
Hob
About
##arboxyl
symbol
##ocene
PRP
##invasive
Detailed
immunostaining
magne
##utin
Beth
Fitz
Omicron
rounds
Bin
Fel
METH
597
Bill
depicts
'--
rubber
Ryan
geomet
il
##cessful
SSC
nerves
Focus
##zz
wellbeing
marital
##oscale
starvation
percutaneous
giant
##tip
##reen
##atology
anastom
##etized
satisfactory
Oil
508
##yrene
USP
##cn
1083
603
##ankton
##aminase
Pon
amorphous
059
polymeric
ISS
restore
Jon
##_2
empower
Laser
##enib
triglyceride
satisfied
##arro
Enzyme
##bsiella
omics
Priv
##auter
##UCT
caries
Translational
confined
elicit
##qing
realistic
760
perce
dependency
Coronary
##kr
##ilized
484
DFT
NSA
bones
599
##887
dominance
##encer
allergy
##L3
KN
implying
Bark
register
cerebellum
##itives
corpus
##774
paclitaxel
##gaard
heterod
##essional
symbols
Overexpression
##CAGG
dy
whereby
hybrids
##isory
multis
calcification
excited
Fernand
denti
611
##welling
##291
distinguishing
microsatellite
Likert
Phe
Thi
tetra
postmenopausal
bees
Asc
Hepatology
##r0
##ono
straw
virt
alkyl
pretreated
Antic
Resource
pC
grading
Measures
Philipp
mandibular
Lith
explains
rinsed
##oxifen
##orh
nationwide
Gem
##ught
g004Figure
Foods
dilutions
simplified
Attention
hyperglycemia
##cales
granules
##evac
este
metallic
GU
Pall
2307
metabolomics
Diam
MCI
Surveillance
peroxis
NOS
##astics
gains
crypt
facing
JCI
duod
524
Company
semiconduc
Prostate
mediation
humid
##azi
scaled
Klebsiella
Big
##ourt
impairs
##force
subtle
Perceived
Cytokine
##ck
permit
photosynthesis
633
476
Dip
Rome
YY
##ondyl
polysaccharides
601
Farr
##othing
retain
##functional
##ignificant
Python
##essel
Lima
619
amplitudes
Others
##aver
Colorectal
##orin
interpreting
ectopic
Bif
pick
##OLD
PBMC
FO
immunized
Imm
arranged
adaptations
Bond
Put
eluted
Ott
carbohydrates
Comments
Sullivan
Castro
stirred
##inia
Parker
Fabric
563
##oviruses
JI
hypot
barc
acetone
Behaviour
528
inhab
neoplastic
LOD
##enem
Tau
##owicz
Hepatitis
Seoul
Levy
Eight
PIC
##activ
Thorac
hydrophilic
hit
##CTGG
Cir
Treat
proxy
##lass
Guide
neoadjuvant
filaments
##irez
##557
melatonin
##acia
FK
635
pancreatitis
##opharmacol
conjugate
exactly
Mov
uni
472
Late
CAP
##EMENT
nanomaterials
intermediates
glycogen
Origin
Ontology
Simultaneous
confounders
720
##Pl
Koz
##ook
##arsh
enlarged
Horiz
##dU
##iferative
1967
573
helical
##492
s129
##iments
aspartate
Transplantation
refug
##ystall
HEPES
dpi
##pc
##atia
##ERS
##urnal
possibilities
064
trabec
##echer
uninfected
##876
##ogenetics
Cot
hyal
1100
Shir
Emb
Richardson
##ozoa
handle
VEGFR
coch
stressed
corresponded
Melan
##iki
spreading
##asticity
546
Charles
permeabil
Need
##ungs
##ixed
fractional
ICA
attacks
protecting
607
PDAC
Variation
Colomb
QT
fidelity
Indic
McL
dysplasia
##uzzy
illumination
##zadeh
shot
##441
##iyama
Griffith
Macrom
Caus
districts
nausea
##RF
##arrays
##ecess
transc
fruct
reflux
closest
##irubin
Nep
pad
1084
Peripheral
Nu
sport
CCD
silk
Ek
unilateral
##558
##oter
conceptualization
Patterns
rip
conce
FISH
##luorescent
Objective
780
sociodemographic
Cow
##itric
PSS
longevity
connecting
perturbation
skill
ophthalm
mock
blockers
Rosa
inquir
engaging
pt
2030
Neutroph
Predicting
moi
##GM
##citabine
associate
494
PED
Initiative
stroma
##rat
DBS
T0
##3A
492
sheets
holding
Andersen
hyperplasia
twenty
##stan
##756
Mori
strengthening
Angew
prescribing
##door
##anto
helper
Bang
Proteomics
Peptide
acceptor
denaturation
Estimation
##brovascular
##ijk
Temporal
obstetric
poison
Lud
submit
##778
Sodium
##I1
##otroph
dermatitis
##wig
E6
Guer
warming
imperative
Birth
C27
hams
masses
##oprotective
ber
cef
danger
gondii
##jiang
##556
##ecker
##rologic
expectancy
Crohn
endometriosis
pink
##3D
##jug
1965
dissected
TP53
Vaz
Enrich
RMSE
Instituto
perovskite
islet
fibrotic
Disorder
Fir
RCC
e3
Interventions
tradition
##951
##rew
exerts
soy
##habd
##okes
##asco
Primers
accompany
glycosylation
lean
Infections
##kova
Pathogens
pieces
Mot
atlas
Stability
polysaccharide
dysp
Page
eigen
##olarization
Aur
##DAR
analyse
Sham
Shand
escal
Adverse
Provincial
disordered
##onuclease
neoplasms
cryo
Lib
dielectric
constraint
##rock
##osaic
Monsevicius
wire
2168
Bald
mCherry
##ycline
Polymers
Atheroscler
histogram
Graham
Moun
Teh
insomnia
##phia
axes
Nations
specialists
Nucl
##edicines
resuscitation
##ront
femur
ultrason
Russia
Tech
##ube
eds
##ullary
reasoning
Enterobacter
Tes
20degC
##ensing
formulated
screw
calibrated
482
##_s
resolve
##erator
Schl
AMD
leaders
umb
Pressure
Transport
hrs
581
IFNg
ubiquit
Kay
##ifl
Years
rainfall
Cra
loneliness
CaM
neuroprotective
##dor
##astr
allocated
Parameter
##ige
deleterious
1966
turned
%);
562
problematic
graded
attribute
transported
Pneum
##Ti
##ented
##HE
rej
aligns
Kwon
roughness
Chao
##701
##patients
645
##hardt
Wound
541
inherited
##luded
hypothesize
FAM
##anese
hyperm
Iso
Munoz
Histological
reperto
Fe3O4
##isi
Anders
##growth
t004
documentation
biosynthetic
BCA
##amil
congr
Professor
MCC
Chim
Obes
579
##ODS
superfamily
548
GDM
##igo
Charl
apex
vasculature
##uh
##ipital
Cher
##agging
534
612
##arynx
suggestive
##efined
hydration
worms
##apine
##oble
##777
##osi
##imilar
insert
oligonucleotide
##uistic
Epstein
Hodgkin
Kato
##fly
##ogroup
characterised
##illon
##ming
Dry
quantitatively
Ori
##oderma
multimodal
gad
transgene
Excel
##ycardia
cysts
ECs
##fect
##enor
REF
pluripotent
Hind
553
sympathetic
autosomal
ferritin
interconn
##ichen
Leh
accordingly
usefulness
Gd
##uling
reass
Details
Nom
##rug
0007
Reyn
Ramirez
##amers
##657
osteoclast
aux
##BE
neurodevelop
tang
##oue
Socio
immobilized
biliary
hon
absorbed
##metic
FEBS
623
termination
nucleosome
Jeff
sectors
CA1
BCG
Examples
637
Syd
Yun
impossible
##858
inversely
Motor
PDA
osteogenic
economy
##aculture
extremity
1n
Mutation
##Si
##imeter
CXCR4
##NR
SHEL
averaging
cytosol
keratinocytes
speculate
arises
##uzi
Symptoms
606
retros
Antibodies
767
sphing
##adelphia
Wals
Progress
##ylv
follicular
entries
Zur
fits
##FI
##asso
Nun
##HV
conference
starts
##amins
equity
Ramos
tightly
##659
Baltim
burnout
Ans
ATR
##CTTT
Krish
g005
O6
##ivil
##961
##ofacial
Final
##994
Analyz
##olinergic
triglycerides
688
YOLO
exempl
B3
templates
##acyl
monotherapy
Partial
Tran
##etary
waist
Rats
6a
Jain
raise
##eclampsia
680
##oplasty
generalizability
##PFC
##urane
##ilical
Shannon
incubator
##aceutics
##alla
Identifying
wheel
Guangzhou
Hog
Indonesia
Berger
1212
algae
directional
ganglion
polyphenols
FAP
prokary
Alm
glycol
porosity
Madison
cs
##western
##icting
Ny
e1
Controls
##rectomy
Harvard
coffee
Trp
SAD
Strategy
t003_Table
Students
(.
Benef
ips
Sul
cogn
md
wake
Johans
plateau
phagocytosis
acceptability
summarizes
089
##654
discharged
intersection
saw
##entiated
2196
pyramidal
##quist
##evacizumab
Fen
Mull
Complement
throm
contract
willingness
C28
DSC
##owa
bee
weal
abortion
synonymous
vial
wor
##Neu
##roth
book
Mant
##orton
Perspectives
Measuring
landmark
ALP
sagittal
Flag
splitting
##uj
implicit
plug
scanned
569
Sichuan
##2023
Fell
Mell
hus
ward
replicated
plei
##461
radiographic
comprehension
##ando
entering
flavonoid
Pri
##hom
##restrial
1042
Diabet
Universite
MIP
entre
defines
627
Philadelphia
foam
advancement
Ble
##iline
##971
lactam
975
##GH
spacing
Embry
mold
discipl
Pathog
speaking
Abr
Sanger
##izu
sealed
moiety
Sang
clients
801
Rece
SYBR
538
JO
eur
deposits
##iza
interpersonal
kr
##ilibrium
adiponectin
inequality
Haemat
hearts
##orbent
steroids
##874
063
Mish
##DD
##K4
debris
glycemic
Dentistry
polyethylene
monomers
bank
##umoto
sensitization
chimeric
V2
oz
##cast
##GPT
elast
NaOH
alloys
calor
oncogene
trimester
Frag
GAT
comprehensively
cham
bla
Fraction
suspensions
]).
##____
Yok
##ocations
Effective
possesses
Bry
##jn
##tization
##tituted
choosing
##rahim
Peterson
Yoshida
##azaki
##ophysical
progressively
farms
Czech
complaints
090
##676
Crystallogr
##blastoma
folate
t001Table
062
Leishmania
ACE2
sarcopenia
MCA
##alin
670
##opre
##775
Rheumatology
Nap
##odo
progeny
568
Handbook
##reement
regenerative
belief
Without
Nad
Friedman
Improvement
observer
concordance
breed
IOP
##net
dyes
Atlas
551
ready
SUMO
consciousness
plex
typing
##hui
paediatric
##UE
##602
Intestinal
NH4
merged
e5
##annel
topological
burs
Remark
Jeong
rays
Alf
608
##884
Bag
Scop
Feb
preparing
refine
Separ
##osensory
entity
vocal
Abdul
##width
timep
multid
differentiating
Kv
Root
##471
GEO
Asthma
olive
ACM
Had
PRO
Hat
##rence
##USS
##robl
shrink
Bhatt
CCC
LLC
dup
##ensic
##nings
swimming
scheduled
meetings
##urch
Biotech
##udo
##451
()
Golds
ionization
Previously
##cing
##erty
overestim
dropped
iodine
skull
##amento
789
Little
Alonso
capturing
##aceted
formalin
##ometh
GPCR
AFM
mas
##anus
##itum
succin
disclosure
Ae
agency
summarize
omega
Um
coatings
methionine
lockdown
senior
Pang
evaporation
Feld
##gc
Dependent
770
985
Nico
##UM
coal
Psychiatric
##edi
autoantib
Fri
Carcinoma
osteosarcoma
/-
##oretically
ended
surgeries
straightforward
073
##eiro
islands
interrup
##asse
##391
reciprocal
nest
tell
##flurane
##ibrio
TAC
rac
##LM
##phan
Financial
950
climatic
wearable
##entina
ppat
Mg2
spectrophotometer
Face
##rov
selenium
##ANES
##IST
cadmium
vapor
Autism
nos
diameters
discriminate
creates
Endothelial
Rogers
sut
Chile
##ylate
50110000
inappropriate
629
checklist
erythemat
##1b
##CN
##776
Microscopy
1011
branching
S16005
Yue
luminal
##attered
helping
Publications
Editorial
BrdU
imagery
##etting
Regulatory
Older
Sensor
Mediated
##isations
##vert
vestib
swine
hypothetical
Harrison
Neurophysiol
Helicobacter
##Medicine
feat
salts
strands
investigator
CIs
Altman
Neonatal
##RN
##D4
##GAAG
preserving
LSTM
RIP
tin
##yon
Forward
##omide
##abolism
ductal
Jiao
##acking
Point
acupuncture
instructed
performs
##_S
coming
##341
CNV
getting
t1
##678
conductive
NCI
endocytosis
614
CAG
missense
ISO
discern
Insect
##656
Diabetic
Street
aspirin
786
Dend
jump
591
Radiat
WBC
amplify
sporadic
pitch
##icer
##tero
ancient
##ylobacter
cranial
AUR
sour
Acquisition
functionalized
instruction
unm
##asser
moral
Transmission
Inventory
##olium
uncontrol
Kum
##rian
integrative
Establ
##imab
polyn
Absorption
571
Luk
##bury
synapse
Branch
sig
Position
Remote
XP
Recovery
operate
catalog
##istence
doub
dislocation
descending
##olone
enamel
psychology
biomaterials
emphasizes
amine
AAC
pall
##CNT
contrad
Collectively
Still
immunogenicity
##toral
billion
##H8
##chool
##illar
grand
ct
##king
attended
spontaneously
underscore
ts
orally
collectively
theme
##tracting
mag
##yama
flash
Reduc
Recommendations
596
##ardial
achievement
##eeping
##otte
XX
##ashima
##even
##tierrez
Nicol
Deh
HPA
photocatalytic
crossing
perioperative
controller
Nanom
chloroform
556
544
PGE2
curriculum
Liv
dust
##eletion
backgrounds
Shandong
Fresh
##ruit
emerge
autonomic
drawing
reproducible
Chromat
MEM
##lay
##omo
##uronic
Odds
1d
Wales
Obstetrics
925
valence
granular
MIT
703
iterative
Analytical
wildtype
Univ
cataract
##isure
subfamily
##LDI
618
Kane
Zar
ICI
##leton
Prel
indexes
##inen
PDGF
1104
raises
##yclop
542
transferase
adherent
shaping
Native
boost
Lum
##2010
presentations
Geriatr
=(
Take
##usch
cellul
##ipro
##ophth
maxillary
packing
725
Caspase
##FV
sentences
649
737
695
DIC
Gian
Thyroid
insufficiency
705
continuity
##ografts
##ket
cats
##RH
##ioni
N5
Ning
JV
##biology
Concentration
Daily
harvest
##uly
additives
connect
Pathways
illustration
neutralization
suture
##epithelial
Barcel
rDNA
##inces
##insky
successive
Postoperative
manifestation
##zation
Morr
Myers
##prisingly
Mobile
Jordan
Hann
##opsy
Subsequent
Dup
Conceived
Liquid
uniqu
occas
illustrating
harvesting
Whereas
Station
Month
Seven
*)
1040
##sten
Differentiation
##5A
##instein
##653
comprise
MoS2
arous
zo
##ailing
Bord
fum
558
604
Modulation
steatosis
quarter
inequalities
religious
citr
Chou
Kyoto
##nr
810
##ached
attentional
constitutes
pgen
choler
san
##TE
Sher
accelerate
neuroimaging
##vent
Gutierrez
Americans
ascorb
L3
adver
surrogate
##a2
##opia
autonomy
Degrad
##represent
##CM
necrotic
C30
##C3
eq
##oscope
##etite
3x
Pig
##obiology
Crypt
Barrett
ACA
##pel
immersion
Confidence
##edema
interfering
dramatic
##olla
dishes
061
Sek
polymorphic
H5N1
Alk
mutational
980
##uba
Derived
encephalitis
adsorbed
antipsych
CD25
graphical
##umannii
Psychiatr
Lawrence
Dist
foraging
##iesis
invited
Essential
rows
litter
##unctiv
Baltimore
586
poultry
##rometry
imported
##uclear
Therapeutics
Hoffmann
Jay
##cs
##481
6b
Fair
cing
SST
##NEL
636
##anton
cooperative
occupation
Towards
log10
##otopic
Abnormal
sliding
Conservation
##immunol
Ges
##endo
##753
worsening
papillomavirus
Discov
rabbits
##alpha
aspiration
##rm
##beck
##WG
versatile
##adjusted
Gamb
penal
maintains
shifting
invariant
Nacional
Deb
PKA
##diagn
##enorhabd
wealth
GCA
##H3
uniformly
('
cephal
depressed
chloroplast
hematoxylin
Hopkins
dermal
kil
lectin
p65
wanted
strategic
##uing
TNBC
1024
##athers
psychometric
xenograft
cast
##Man
Cob
avoided
pale
##iaceae
mG
##DE
argue
fibronectin
663
Carter
FEV1
Microsoft
ChatGPT
today
Hematol
dehydration
##amines
lipopolysaccharide
##vist
AAA
Clostridium
CQ
Taking
award
Indigenous
CTLA
711
1950
VK
try
Pyr
REC
fmic
ups
limbs
encouraging
Jang
TAS
069
Annals
departments
905
perturbations
616
periph
exhaustion
Hot
##ibli
##ipar
Stro
classifiers
strictly
shoot
TSP
strengthen
Welfare
##edge
##riage
Clus
Yamada
oocyte
##upervised
effectors
ICAM
ie
##exp
brach
##ropol
STEM
Stevens
##ignant
analytic
contemporary
Nutritional
irreversible
OB
monkey
readers
vegetable
debate
fmicb
SCR
##osition
methyltransferase
717
766
TAG
causative
utilizes
broken
digit
##Biology
584
modular
Carval
transduced
##pyr
##853
##BP2
freshwater
bromide
Pod
flowers
flanking
Chemotherapy
074
LVEF
meningitis
Romero
##anin
##872
completing
Rand
##tie
##yday
Peru
Techniques
baumannii
##itas
resorption
Medica
structurally
brack
cerebrospinal
conformations
ti
##acetic
068
PCOS
cave
554
sheath
crystallization
##posium
citiz
##unctional
homogenized
newborns
715
##iggins
Tobacco
##avorable
##992
aminotransferase
Possible
parenting
cylind
##epatic
accid
##olipoprotein
analogous
Otol
SIC
##aceous
##856
bisph
corticosteroids
").
Cyp
##benz
Gur
0012
##etter
##Bl
acuity
1515
602
contour
690
##zu
Schn
residential
Have
Event
##B4
##orbidity
Isch
Olympus
##883
Egger
diver
##anson
originated
Burden
##ovol
##ajima
lessons
Ari
Youth
preserve
tablets
848
glutam
Sob
weighting
overd
##ogeneic
Angel
##enclature
PAP
CIR
Educational
viv
1964
Haj
##hamm
Bauer
9600
TSH
##elen
##ureau
amplicon
##ECs
##WH
phant
undet
##ineph
resveratrol
##quis
MSM
centrom
PCC
diagnose
mirror
suited
myelin
713
herein
suitability
makers
##imurium
BO
bull
##iii
esteem
posture
combines
657
connective
564
MDS
Transition
##erals
##351
initiative
fossil
immunocomp
Purification
temporary
islets
Marin
##ript
Hon
1469
capacities
delivering
Markov
Connor
biocompatibility
immunoreactivity
cofact
##554
811
Zr
hes
##itsch
576
Loh
impacting
probed
##673
PTH
JAK
CD11b
##Cor
##oporous
##icious
M3
##prol
2500
epic
##luding
Michigan
621
Gust
998
##amph
ka
##jin
##ostat
disulfide
##eux
multifaceted
bat
ADC
hardware
Amin
Selected
worst
taxonomy
Chromosome
logic
Pancreatic
wav
##imon
encapsulated
tons
##668
777
##mt
592
splen
7b
cocktail
Ai
phages
Spinal
Below
Membr
energe
1472
##opharyngeal
##ucleotide
Kirk
Dex
N6
orthodontic
homogeneity
##ovan
agencies
643
QOL
theta
676
Raz
072
fibrous
##WL
Hui
pulsed
ganglia
quasi
fermented
doping
rearrangements
print
generalization
sav
##olateral
mitigating
reliably
##opathies
Tumors
menstrual
819
Fourth
##urrently
analyzer
Reddy
estradiol
scholars
##igenic
diffus
polyacrylamide
1E
layered
689
669
SZ
traps
pathophysiological
antenatal
##aeus
803
Glas
occupied
MCT
##rams
##lyl
Combination
##enorhabditis
piece
flagell
##lett
clades
Univariate
phylum
wrist
5C
falling
INS
Tumour
Devices
##burn
VII
##hs
prospects
heatmap
##esthetic
H3K27
discontinuation
K2
altitude
##oba
interl
sputum
CREB
Ageing
undergoes
begins
sister
1476
552
##abilistic
Hell
572
Antibiotic
gathered
Lis
##owing
shaking
CD28
##enton
radiol
harboring
DX
PDMS
CCK
explanatory
renewal
Rhod
periphery
##601
##grav
waiver
durations
##oan
Immunofluorescence
Islam
convenience
Decreased
740
DTT
1124
Ost
Infr
nose
herbal
cooled
Dy
##PV
##iet
specification
626
Exclusion
Sampling
687
##D3
catch
Brien
crosstalk
##pendicular
ancest
Carvalho
Load
##obenz
detox
##ogeneity
##oza
Rodrigues
##oken
stepwise
NHANES
S13
##ensable
Kil
puber
Dox
1113
##ecessary
solved
catalysis
##gran
setae
diffract
##ococci
903
##857
##acrine
bac
contrasts
JCO
##algia
Lands
##trin
##tino
##sover
flo
679
EY
Nb
##ancomycin
serotype
siRNAs
##rogens
##erad
##enient
##oves
Multid
refractive
##NM
##idone
624
VF
Vall
thiol
##osides
Tag
cv
ank
##AT1
conflicting
745
823
dismut
stabilize
GAG
##cholesterol
##andi
confidential
##odec
interneur
Len
##ophores
Quantum
das
LIN
##nn
##hamn
Q3
##itron
Item
chemically
##==
Simple
##ogo
##ista
formaldehyde
Gibson
##ypti
faculty
keywords
Peak
isotope
##Ni
priorities
Alexand
interfacial
##uretic
##acea
779
Saito
Kennedy
Jong
jaw
##biom
##371
##CTC
PDT
passing
convenient
aeg
employee
##enchyma
727
cations
outdoor
Transcriptional
RESUL
Bonn
reviewing
NH2
Wellcome
795
920
Horn
morphogenesis
'),
815
patent
Cortex
##ynaec
##cation
582
Bailey
##anu
transducer
argued
6B
store
magnet
syringe
747
Polyp
DRB1
PVDF
anchor
Lamb
confusion
Caenorhabditis
Howard
812
Iv
Theoretical
inspired
##oglycan
Stata
25degC
631
SCD
antenna
pesticides
CD19
##559
578
##omyel
suffered
Carlsbad
##ereg
bead
##assi
subscale
nicotin
##oichi
##apac
microarrays
813
##emics
BPA
coronal
Consensus
Cis
Pir
kill
##_at
proposal
abstracts
Numbers
##tructured
##F6
701
sexually
nomogram
DPPH
##Chem
1s
4E
';
##eving
acclim
566
574
2d
639
quadrup
compromise
Cu2
CYP2
##otarget
##pton
tactile
ham
709
stabilizing
inconsist
buff
Chlamyd
##ocytopenia
NSAID
g005Figure
cobal
##joy
CaCl2
deployment
[(
bim
cm3
Jiangsu
Occupational
surfactant
Spin
caffeine
Sydney
HSC
bigg
orthogonal
raising
microfluidic
Huss
##ystic
HRV
910
Presence
749
##olith
pathologic
##oplankton
##olys
##phar
Waters
intercellular
##kB
authentic
FLAG
legs
PONE
##change
707
1105
##viruses
noticeable
820
Researchers
encouraged
Ou
soph
##WS
perpendicular
##atization
revis
Evaluating
tolerant
Electrical
umbilical
735
tried
granule
Lob
crow
##bas
Kot
oxygenation
demonstration
##aska
artic
##754
699
LTR
guiding
651
Norweg
##employ
inset
papillary
##DI
Feature
anticoagul
Donn
1012
discrimin
##1R
reserve
metalloproteinase
Fal
Winter
YFP
eat
##ulae
30degC
Barn
nanow
##thermal
Fos
Sung
##hart
consul
retard
remarkably
analgesia
adh
Developing
microwave
Multic
transcriptase
dish
scarce
caudal
##thromb
dimers
prostagland
crosslink
nickel
##oro
##adec
considers
arres
Structures
Transf
Madrid
gh
teacher
Robertson
Walsh
##bt
bioc
quantifying
tris
sequentially
##859
2F
LAM
Difference
Src
DISCUSS
##CK
elemental
competent
D4
mosaic
pest
electrophysiological
##istribution
DISCUSSION
##axial
segmented
protr
advancing
wavelengths
omitted
673
auxin
neuroscience
Haus
flora
analogue
##ocha
Childhood
##nov
expectation
labour
##ennis
##GCG
p16
introns
##757
##garis
##pat
Dunc
Katz
completeness
wR
imputation
Comparisons
634
nig
##aku
Sequences
erythrocytes
dichotom
Hin
##sta
##361
Angeles
Sj
priori
averages
proteolytic
Negl
glucocorticoid
MSA
lex
Apr
Space
646
wel
dealing
repetition
immunosuppression
Pierce
ingestion
PLS
antigenic
interviewed
autistic
damp
empathy
primate
806
supplemental
TGFb
mS
##anguages
Industrial
Broad
733
##k2
808
661
ESC
TGA
drawback
shedding
##hypert
folds
advantageous
incomp
Schwar
Neuropath
Esc
849
cryp
Reich
Campylobacter
covariate
628
Rare
##osted
Norwegian
##oluble
annually
migrants
thoughts
PIP
ran
OD600
ipsilateral
##agia
Intracellular
prime
##ulla
Example
jf
sphere
##........
805
eliminating
threonine
719
Items
Profile
epidermis
+]
paste
##ographically
Kup
jam
Neurochem
##iferation
provinces
primates
packages
671
825
1465
Sustainable
Reproductive
fistula
##{\
##odom
extrusion
realized
693
x1
Rein
Induc
Assembly
Glass
GPR
1167
TUNEL
840
Microbiota
648
Niu
influx
##board
dates
##dan
Depart
+++
860
989
Relat
GABAergic
dorm
recognizing
midline
thymus
monoc
Gul
##zyn
linearly
802
Bars
REM
##optimal
pyroptosis
RESULTS
917
Montreal
carbonyl
##immunity
6J
Ds
secure
##opharmacology
Pick
cargo
##2021
Uns
repeatedly
lactation
baby
diaphrag
##kas
##ivol
industries
interneurons
AgNPs
CRT
##omeres
##MAN
##bourne
598
s120
##through
consultations
##ROD
stably
county
Recombinant
793
TMS
fus
##mel
##ducts
drops
Jie
##ovi
AMR
bronchial
alarm
855
Ala
grafts
Windows
##atched
Combining
Setting
informal
Barcelona
Race
##ordant
G6
7a
1467
chemotherapeutic
resultant
PCL
intentions
song
##ortical
##adas
dt
##H5
##XL
642
1M
anesthetized
immunomodulatory
Lic
##759
##enteric
Riz
monocyt
##854
697
##abo
##itine
encompasses
aegypti
##iens
desorption
##oki
##meida
causality
sativa
Activ
Predictors
877
stations
##chart
sho
hyperactivity
pharmacokinetics
##H4
pharmacokinetic
chaperone
##right
##alanine
Alam
72degC
GlcNAc
##gt
retr
Eco
synchronization
##glycer
##ologica
SSA
e6
rose
},
##mans
Surprisingly
migratory
contaminants
veterinary
1108
##ENC
Gastrointestinal
Vaccines
preprocessing
Q2
Sche
cocaine
gemcitabine
PVA
charges
Bam
Kind
##urgical
Benz
##iently
Fusarium
tamoxifen
B7
telem
Optimal
Buffer
administer
##afenib
769
880
Tm
X2
##eses
##heads
analogues
##lers
##2011
.%
>!
Spl
sediments
elution
postural
##erto
911
Mong
##ubs
barley
CHO
introduces
inhalation
Rhe
Got
mist
tot
Accept
Atm
653
e00
##CATT
palp
632
Jer
Urology
1145
Cholesterol
preeclampsia
Philos
antidepressant
817
Distinct
MRC
vertebrates
ecl
##oker
##yder
HBs
Dire
ANN
answered
Move
##cm
##fp
##lee
everyday
painful
##otto
799
##Comp
Anoph
##edication
##luoro
Hazard
dismutase
P0
sial
807
##qa
1364
##icks
humoral
Wilk
Adolescent
Chapman
crown
Kad
Paper
whisk
659
Frances
##eor
Coeff
collision
electros
tuned
Redox
repertoire
Fungal
##cd
observing
723
coral
##ishes
Activated
emulsion
ArticleBiology
Feed
Zinc
Parasit
oligonucleotides
Dw
intriguing
suppressive
rhythms
818
gating
##cting
##imentin
Dix
YP
##iu
##azon
Interp
664
micr
thematic
spheroids
Hunter
mu
783
MOI
##istries
facilitators
compensatory
##abinoid
deox
cruzi
078
operators
RANK
Universidade
smartphone
Base
##terase
tracing
837
workload
##ahara
Carbohydr
Vivo
gaze
##vern
couples
uncommon
Veh
##opter
>!#
excised
076
ACL
branched
Ovarian
breeds
##873
PROM
Burk
arousal
accessing
electrolytes
5472
##atol
desire
confers
##568
residuals
monocytogenes
##552
AMI
Andr
835
997
Fle
paradox
718
Laus
grip
holes
##Rx
eukaryotes
torque
Extr
advertis
QD
##iguchi
looked
DOCX
##iprofloxacin
PACE
##ulic
##758
continuing
##abeled
4H
Keller
Almeida
ROIs
1183
enterpr
##light
##ergent
erythematosus
PAD
Varg
##sil
referring
enlarg
712
VO2
ulcers
rhizosphere
Ler
##fil
astrocyte
Cerebral
##pheres
strip
##issa
Minor
Synthetic
erosion
sure
##ieb
666
duplicates
0000000000000
funds
elu
}$$\
Kinase
sacc
757
RAW
Placebo
##atite
locomotor
cingulate
995
psychosis
Bifid
638
Herb
Mind
father
706
7717
Specificity
Fields
apple
##estation
emuls
calf
Features
XPS
##tite
excitability
Palmer
Ford
Interface
MSI
GSEA
parenchyma
Publication
Rossi
##553
rearrangement
##assa
H2B
spikes
$\
Fine
revisions
Ahn
Affect
##accur
Histone
immunoblotting
HMGB1
##isor
##eptic
volumetric
816
shallow
##ifferentiated
vortex
##rav
0033
metas
##663
##578
TCM
terrestrial
synthesize
##iezoelectric
Preliminary
Anesthes
grav
##894
piglets
vulgaris
967
Fetal
##fu
Bray
arrival
Argentina
juice
retrospectively
ib
##kowski
Jam
iNOS
##agin
Chakr
eosinophils
Neuroimage
CBS
scattered
641
Brit
Linn
crani
VV
grouping
motivated
accompanying
lie
atopic
##formations
857
jcb
sacrificed
mechanics
ARDS
HQ
mitosis
IRF
Industry
Synth
bidirectional
##i1
GSK
7554
METHODS
LOC
Rick
hyperc
Invasive
osteoblasts
Gynecology
822
Aust
transiently
IBS
emit
ensured
##metrical
##orax
ascending
intermolecular
Aj
accessions
H17
compatibility
##pine
##ahr
MALDI
##aban
Reactive
radiographs
grafting
shrinkage
##odil
diagrams
fibrinogen
decid
someone
Ki67
Hassan
CDCl3
Robust
Procedure
EZ
##yman
Anopheles
WNT
metaph
diploid
Carp
Lock
##icion
##iah
ash
Serr
diagonal
714
##ofibers
Sharp
Newman
Rid
##ovsky
Across
##cta
907
##669
977
Involve
capacitance
charts
##CAC
photograph
games
Tehran
Kov
Yeast
9500
epoxy
neuroendocrine
##UCTION
sitting
xanth
##3a
Stable
Paw
##NI
656
veins
Scler
money
tunnel
904
##inephrine
ABS
got
regen
aggrav
disrupting
peerj
briefly
919
replacing
4c
915
IAA
Ads
MicroRNA
##GTA
730
Having
##pots
Johnston
plasmon
bundle
Atherosclerosis
Doming
YK
704
compensate
iodide
Duncan
killed
##ahi
nature0
743
mot
elabor
Platelet
stool
lowered
Holmes
845
##elae
##axia
unexpl
uve
##inositol
##trl
##emer
Chun
MTX
658
NZ
Roll
citation
p27
orthologs
pole
702
glucan
BF0
CD40
vitamins
##abr
nanof
##itization
nodule
##hang
##ploys
##rints
##aryngol
Mohamed
microplate
682
##gado
cerebrovascular
Sect
hardness
occasionally
intercept
Fract
##omyelitis
vice
##oco
##ohn
##orphism
DNase
polyg
nearby
965
##erald
Learn
nominal
Dir
beams
Stone
coherent
OG
Sale
716
IX
nond
##3G
2100
EFSA
vertebra
##gow
bilirubin
subscales
Facility
Ultim
dichlor
A4
ll
##gic
##endence
aryl
708
audio
1e
Thirty
regurg
Excell
distor
Sections
]),
##Ra
##ondition
Yellow
##1471
##576
spatiotemporal
s110
supers
transparency
aids
Activities
##Ad
##allic
Leukemia
993
TZ
nanotubes
683
##oliosis
vac
STAT1
CSA
##bin
##atisfaction
epileptic
lamina
Christian
##NB
Cla
Pharmaceuticals
1m
V3
wk
Genomes
classifications
gliomas
##uspid
DAS
Deletion
##ede
084
freshly
Tuberculosis
Pitts
##ancement
spheres
laws
OTUs
encapsulation
Zamb
voc
CAC
##osoma
gravity
Country
##ERI
hered
##cens
##vex
disk
##azone
uncover
languages
##opher
calling
Universal
847
1067
maturity
taxon
Pollut
686
960
MUC
##aP
##ardt
##ometabolic
Mueller
##athy
##ropo
versa
polypeptide
LBP
Moon
Bird
##ulu
endoph
COL
Neurological
734
TAP
exit
##atility
Aedes
neovascular
Polar
metam
occipital
dyslipidemia
##rimp
Gastric
Hil
gi
tips
##dar
##var
##idated
##tify
parasit
Crow
##2019
joining
GDP
C31
Few
fuzzy
1176
fructose
ut
bilayer
meals
071
societal
Tetr
668
assumes
attendance
YAP
##RCC
##acks
situated
Hex
Lateral
1148
microd
Euro
##boemb
Biomaterials
973
Leung
##ometrics
palmit
analgesic
disparity
surveyed
judged
unnecessary
v3
##alsy
Preoperative
myocardium
987
Lynch
Pras
Virtual
Mei
##herence
Economics
726
AOR
Concept
collections
cholinergic
724
796
Jar
##imide
759
##minth
Oliver
Butler
Jacobs
cobalt
Edin
rhe
deoxy
player
judgment
disagree
Mig
Rating
feces
Should
mucus
speeds
handed
acetylcholine
chambers
"[
##umes
imposed
##zymes
##oprote
790
833
Nils
Vil
aS
genotyped
654
diversification
##ophosphate
vigorous
eQTL
asth
evolve
Reynolds
C29
LTP
##ffer
degrade
Inflamm
Thoracic
##imotor
Adaptive
thousands
##orov
0020
##892
0c
970
768
Maur
739
census
##istine
neurop
##ethylated
authorities
client
flour
adds
s413
Rhiz
accomplished
glia
Ghosh
hemorrhagic
butyrate
930
subcl
hematological
##VECs
internalization
##unnan
Excellence
899
Hess
Ron
##CB
histidine
8184
1117
synergy
crossover
+.
926
996
fos
##verberg
effusion
CBT
codons
Milan
Ton
pub
recre
##inescent
village
proliferating
nocic
945
Pasc
Proportion
Silf
Characteristic
consolidation
Dos
Dow
##S3
##epsin
1123
homologs
VG
tb0
Kimura
McDonald
sophistic
923
Rabb
Sources
js
##1D
uncontrolled
Bureau
Lister
CBD
##IX
inaccur
surpass
EMS
reform
##entified
Netw
##tii
Engel
##innitus
Jenk
##ifiable
1003
Repair
Symmetry
duplex
smear
691
viewing
Severity
937
##WA
##istin
674
cope
invertebr
##iate
employs
824
885
##omotor
Automated
paternal
Plate
##uclide
829
##acci
##agas
##onsin
Staff
presynaptic
SMAD
Principles
##hin
collapse
##yclopedia
##882
fault
867
minerals
peers
lipase
Carcin
pmol
mountain
Gabri
descriptors
perceive
stoichi
scene
Apart
ketamine
Involvement
787
827
Gle
NO2
bevacizumab
Reed
SUV
Ellis
913
Fold
##isy
photographs
Symposium
Russian
Hunting
Cape
assim
insoluble
778
681
097
IPA
settle
Sensing
GY
##adication
unre
simplicity
generator
753
678
##cano
LOS
lanes
##istol
medians
Mayo
Nos
##yx
##entinel
synt
Ring
unequ
hypothalamic
763
EHR
##RODUCTION
940
Hunt
Za
1164
0014
##ozin
wrong
allergen
epist
083
pyrim
PCs
seropos
##El
leisure
Respond
insertions
Targets
editorial
H18
##EY
characterizing
##omorphic
Bias
deficiencies
CDS
##584
degrading
individualized
Afr
Dementia
degenerative
bbr
Verlag
drafting
obstacles
diamond
iteration
sounds
uterus
nonspecific
holistic
Fink
##etine
Petersen
prophylactic
locate
736
AIS
1015
Morphological
##roblasts
Silfverberg
Knee
RED
##angle
suboptimal
diffractometer
Jane
Sut
##esia
##ylene
phytochemical
##trong
Martins
729
Mayer
##mus
mobilization
hemodialysis
838
biomechanical
##IONS
Way
##Qu
830
budg
anonym
##752
Retro
adhere
bloodstream
seawater
QS
##PO4
##ells
Integration
FCS
balloon
Anatomy
Immunohistochemistry
1005
754
cathode
##inetobacter
Mountain
##KA
Davidson
935
meg
intran
Hag
rhamn
809
696
947
dC
nude
##tebral
Did
##esp
spons
minus
goodness
capsid
crosslinking
Ole
deion
##iggs
##bumin
1019
Chain
Comment
Being
T1D
bicarbonate
##omegalovirus
0deg
744
##ushed
organelles
079
##stance
boosting
Immunohistochemical
maze
infectivity
##etrix
##tinent
##seq
unfavorable
neuromuscular
Wisc
##ovis
##664
ATM
Webs
shortening
obviously
Inoue
##ostatis
797
##Molecular
##atar
0009
backward
##parametric
postsynaptic
890
undes
##algae
carc
heterologous
hepatocyte
clarified
neurotrophic
oblig
093
cages
requested
MAC
Great
+(
6000
##amon
Promotion
Nepal
VIP
mitigation
Curtis
Adhes
Mahm
cationic
duc
##urea
osteoblast
insecurity
sink
}\
##ivirus
continuum
2164
644
865
Gag
Modern
VB
couple
814
R0
##594
Fiber
Isolated
pointing
gd
interventional
helic
THP
benzene
##hedral
798
TSA
lect
##oost
recurr
news
tensor
Emotional
weaning
738
897
##EV
##ortal
sensation
readings
Lamber
nn
Composite
aggression
ultimate
Award
##odynamics
Complications
MetS
revolution
##avier
pA
##opres
Cheung
##ohl
slopes
Affairs
monolayers
Dil
##emaker
##imumab
PMCID
Southeast
lobes
##anolic
751
thalamus
INF
huge
stone
depicting
Zm
equiv
853
smoker
Logistic
698
Wid
##LAB
##ulators
##IDS
662
BU
##jk
Christensen
Abbott
multidimensional
S11
Acinetobacter
981
disadvantages
Arnold
Roles
fees
773
BioR
902
Epithelial
cubic
condom
incen
Wisconsin
Pv
Rd
fir
##MCs
breaking
follicles
Dahl
##inogen
##779
##lips
spores
nematodes
##bon
##odex
Medicina
Planning
##enzhen
analogs
652
MeOH
672
Barth
ownership
gauge
ARI
bear
##opolym
deacetylase
wine
##anum
##uno
intakes
##tillo
bandwidth
1756
##relin
grew
appraisal
731
Subgroup
DCM
Neuronal
greenhouse
insecticide
Wave
##ubert
1530
756
##enzyme
953
leukaemia
RRID
comorbid
Stanford
949
##enhagen
Lausanne
##eron
##ectic
reef
##afil
pcbi
chin
Levine
rolling
Kramer
poisoning
748
exud
804
Ecological
Predictive
Letters
986
##ivast
Abstract
ozone
Herm
##quet
lacked
synchronous
Business
curing
visited
oscillation
pu
##O5
##vastatin
stores
##rolase
pharmacology
870
Ket
d6
hop
##otax
COM
##773
pairing
follicle
Foot
ureth
721
Xian
##etaxel
0013
90deg
nematode
ubiquitous
kary
amide
Microbiome
Myel
JVI
##ozyme
##text
Enterococcus
843
##test
meiotic
extrinsic
741
astroc
927
usability
quartiles
faecalis
895
chemil
Conserv
##tm
1034
##uca
coarse
##ussen
migrate
oligomer
argument
jo
wireless
##ositis
1115
heads
Crystallography
condensation
886
encl
dissimilar
gynec
labelling
863
Knock
erythrocyte
Von
Quin
AEs
##AGT
captures
Eh
10000
##apenem
889
thereafter
splenic
Saint
##EST
Neutral
Collagen
graphite
g006
8b
IO
##icillin
Zhan
839
##gut
SNR
##torh
switched
Henry
constitutively
##enas
##atable
trif
Tf
##upp
##ontology
hernia
trabecular
##aft
##agonal
##izable
##arya
##331
identities
sandwich
hypersensitivity
Welch
943
livers
1013
##ampling
##ocell
attracted
plain
Elli
PCSK
Erb
offs
perforation
746
Cant
neo
carbox
powered
placing
ambiguous
diseased
1963
CTD
##ogels
Meeting
Barnes
reproduced
exacerbation
##RO
transformations
fairly
exerted
##hus
schist
##razole
fragmented
##ophosphamide
microv
Leaf
damaging
hydroxide
##amicin
ascites
##castle
##but
##ungen
Toxicology
Hayes
hotmail
pour
orientations
Correction
##essler
##ymetrix
Physicians
GSK3
neglected
7A
Lub
Petr
indigenous
0030
Extre
PLC
Wells
waived
variances
Increase
H3K4
893
yr
endoscopy
representatives
##otoxins
821
##qvist
Atomic
CRF
Vent
tuber
precipitated
##aglia
##erer
neuroblastoma
Dedication
##mill
##Ks
seeding
Bioinform
Interfer
glutamic
infarct
herbiv
virtually
771
FX
lose
EtOH
086
EBP
surrounded
098
939
Pg
1758
Salt
Spectrum
vestibular
XGB
fs
Microb
Universitat
##pon
conting
Adapt
909
Minimum
wildlife
KIR
cp
##akawa
BCL
multicentre
NADH
Antonio
##etu
##tivirus
dilated
thickening
##rexate
hydrochloride
bot
pun
##aques
##stem
1800
Adler
workforce
##orphic
929
dies
Amyl
Baum
Huber
Yield
srep
1139
Circulating
MFI
Lines
1050
0036
Reliability
Letter
bb
##Mod
silent
##ahepatic
##679
APOE
repressor
Gm
2050
##aginal
infect
0010
helices
##yme
Reh
CZ
##2D
##atech
Gam
Hud
Dyn
TAT
##tik
ultravi
stirring
##anni
##ertz
hospitalizations
nap
elective
MEK
##rigel
RMSD
Pek
bean
increment
##brand
Disability
Bernard
Janssen
##osteric
Correlations
Austin
pine
##fen
neoplasia
appetite
776
##imento
Vaccination
besides
##ahed
fibres
tourism
photoreceptor
ASP
##hong
NPC
ultraviolet
FST
Terr
##ande
governance
ideation
##TI
trapping
Cu1
phantom
went
##oV
subclinical
##isser
Abu
violet
anthropometric
rotational
farming
FAD
##utely
Strains
STING
ventil
##Ka
##abies
684
00001
portions
GPS
Hang
##eton
788
Shenzhen
extracting
1094
lasted
Gilbert
728
##hy
##hoea
Victoria
dispro
##piratory
Ribeiro
Coast
979
Seo
Fly
UAS
##PG
Schult
TMA
granted
Mishra
recessive
##oresistance
eNOS
suggestion
threats
mindfulness
Every
18S
##CTA
methane
##ustion
##obia
##oxetine
military
Affymetrix
Dj
##onomics
##iko
oven
anode
Huh
ALA
Och
T7
##ousa
machines
cholec
surviving
##Immun
1022
sophisticated
758
##piration
##BCL
FRET
Product
tibia
LIM
879
Significantly
1748
692
neurodevelopmental
hereditary
Miao
##hem
##otrexate
senescent
villages
Shib
ather
Abdominal
##ophysiology
Cdc
##integr
PIK3
stacking
Neurosurgery
834
productive
Na2
Proliferation
e10
pooling
##uson
blocker
Progression
Househ
mush
twelve
horse
Rout
##EG
##atation
1095
seques
Myocardial
observers
multin
membership
)"
Solar
alive
PUFA
Env
tubules
shaded
##574
##eastern
Higgins
##encias
##cranial
distortion
Experience
Nucleotide
Live
Rb
Venn
4049
858
certainly
linguistic
791
Morales
Pedersen
ticks
OVA
Melbourne
Genotype
midw
serological
discs
pesticide
(),
NGF
theoretically
strugg
Asym
722
Making
vent
##itively
constructing
attenuate
##utrop
shares
contrasting
CRS
Arms
technically
stressful
accessory
Interfaces
tracked
866
918
hM
mW
##asci
apnea
ureter
palsy
Cloning
##etermined
Bae
LAB
bolus
##dc
3892
immersed
##asure
develops
PFC
L4
Layer
##ivir
implication
##pectral
prescriptions
s000
Reve
Was
earliest
Stimulation
Macrophages
##biased
Reid
##oyama
standardised
ulcerative
partitioning
##ocysteine
Gang
cuc
##210
##aric
undergraduate
##784
H2S
architectures
Clean
Collaborative
Lov
pR
Altered
CTL
Aim
##ingly
Scatter
tolu
dic
tether
##iax
groove
K1
##BN
grating
screens
swallow
##ofilm
pelvis
').
##lems
coat
Albert
##relevant
combat
biosensor
Dod
##HF
corpor
adaptability
1N
UI
##lim
Mars
survived
764
Brassica
Qiao
##akami
1008
longest
Slov
locomotion
938
Cort
anie
noninvasive
781
##bladder
kPa
SMD
##owed
CIRC
failures
Sark
##gers
##ouracil
concentrate
CAFs
##PM
Flores
GHz
inev
adiposity
Romania
955
##ophilia
mandatory
Alto
endurance
masks
haemorrh
beverages
PID
standardization
##enzie
##opathologic
mAbs
Wallace
912
Camb
##available
836
887
recap
intu
##entrifug
##ledge
##aji
)-(
disrupts
flavor
enjoy
disseminated
HEK293T
2p
##400
compares
Prem
prompted
Eis
Lah
tear
Brooks
Kuo
FEMS
Muse
##enne
probabilistic
Scanning
contractile
Byr
script
##raham
secrete
incremental
biof
receives
sensorimotor
meets
906
curative
catalase
##IKV
stringent
Kauf
##o2
procedural
originate
Andrews
Adolesc
PCSK9
Tav
784
782
Dot
multifunctional
##enoic
til
##b3
0011
synthet
skeleton
Electrophys
outline
ajp
##cellulose
##olymers
AAT
##inar
##ekeeping
wherein
##uzzi
bonded
mercury
933
GGT
Hospitals
detachment
2458
772
drinks
electromagnetic
##esda
postoperatively
clinicopathological
executed
922
##apolis
polys
Microgl
983
Minister
segmental
##embl
Electrochemical
##Map
##anca
Means
nanostructures
##Ox
locality
hundreds
828
Vibrio
sad
oligomers
recruiting
Kab
##opoulou
##oquine
HRQoL
Rag
Reagent
Types
##CAR
ahead
##WI
flows
##500
semen
##gia
##jas
##inally
##agraph
##obium
conjugation
arrhythmias
MBP
##mol
spondyl
Bru
binomial
LUAD
ineffective
990
Peptides
story
Freeman
cleaned
ORFs
simplex
Preventive
##Te
Oliv
842
intubation
alternating
destabil
silic
Pharmacological
Hypoxia
Bing
Eagle
Kus
##ylvania
anter
##haz
00000
##ocarditis
HEK
Nikon
Trypanos
reti
752
schema
##592
Bethesda
attract
CCI
##ITY
CFTR
Juan
Pure
resected
##ylic
biol
Conventional
opened
883
Pinto
##oprevalence
##erom
alThis
10th
relied
overlo
sigm
##actor
supr
##olded
syncy
859
Estimated
694
##gested
1029
Accum
PSP
Annexin
##ubiqu
esters
##hypertensive
Beng
Kri
Lap
gift
##oris
physics
873
Toxicity
Category
uric
Antigen
916
Doh
ban
advers
1958
meant
alternate
microbiological
elasticity
torsion
846
vancomycin
##icile
CONT
0432
10x
elongated
geriatric
Cognition
E7
matern
wait
##opal
##eptidase
morphine
uncertainties
Nie
grasp
)],
galactose
WGS
##ariatric
HOMA
##vinyl
914
pT
USD
##half
Approval
Ibrahim
hotspots
##Com
##issen
082
2E
thorac
##avidin
malformations
PHA
bibli
##yces
tetracycline
##ineral
##olated
parity
956
992
##ocortical
##dt
shelf
declines
rounded
Hapl
fc
hE
1014
##eke
Const
861
operon
graphics
Bacteroid
phospholipid
##kt
erg
SERS
Penns
##lav
Incorpor
dysbiosis
087
donation
Dulbec
732
PQ
Veget
##hp
761
dissip
Antioxidants
(*)
redundancy
826
963
centros
POS
oxidant
write
dsRNA
##ivastava
Rang
tablet
hypothalamus
##ophy
PFA
Yamaguchi
regurgitation
Kok
Rs
##bot
##ytocin
Ishi
dysph
respondent
GATA
H20
destin
957
electricity
Dear
##athyroid
prednis
AEM
MOD
##g2
##equilibrium
communicate
Tests
1300
901
Walter
guarantee
Procedures
Nichol
Maryland
Biobank
GQ
R3
existed
achieves
kappaB
neuropathic
Enrichment
dm
##opore
##yphilis
Georgia
988
Aber
HZ
RU
##asant
##573
TOP
##772
mTORC1
##vol
##2014
Antibiotics
exacerbated
AGA
Ferg
S22
Orb
Surf
metagenomic
cin
crossed
Rut
permutation
dimensionality
intelligent
##atur
##AE
Parents
Assum
Engine
Degradation
Zan
perp
##astuzumab
896
##egend
postulated
Richards
inactiv
936
Yunnan
witness
##edict
Zhuang
Stefan
Teaching
neuroimage
Bent
Kent
##kan
##gun
quies
melt
Ull
chemotaxis
Colombia
Pennsylvania
##letin
etching
Glasgow
##porter
Rez
Zn2
##micutes
Ivan
sd
##ulo
##olipids
Dulbecco
924
Jean
##rum
##oidosis
Marie
adenovirus
SGL
citations
##yang
856
HSD
Processes
Omega
Gron
Name
serotypes
##662
Pfizer
neighbors
dipole
aided
##tanding
relates
SIV
syring
Dm
Hierarch
##eco
spiking
extrav
Gad
##ombe
Retin
Urinary
##Hs
fibrils
Roz
preferential
traditionally
Fluid
shrimp
##ealed
SSR
mimics
##unsaturated
deionized
API
PAC
##852
Microorganisms
macroscopic
Newton
PCB
deeply
C32
bare
##itely
overlapped
Instrument
lamb
##roz
##eper
##egu
Inhibitor
Determinants
neurotransmitter
Mai
Mason
UF
##oA
specify
conjunctiv
anaemia
classifying
PSMA
SET
851
enteric
abolished
inhabit
Fusion
carp
Hav
WK
reorgan
##aind
##afi
ORs
immunoblot
siblings
thromboemb
Ank
##491
sickness
nanocomposite
##tries
Campus
quadratic
Covid
RSC
aur
1961
transmit
874
subpopulation
Cervical
behalf
manager
grap
959
0016
septal
PMA
##healthy
##etan
##actam
virulent
depths
adopting
Carlos
disadvantage
Moz
##yu
oxides
##meier
Inhibitors
Munich
##roch
##uccal
##relation
Taip
carries
CSC
Caco
distrib
##otation
thrombocytopenia
iPSC
Distance
methylene
Queens
Sae
kan
##vities
Atl
864
Andersson
YOLOv
Wick
aOR
Olsen
gambiae
##electro
beef
calves
bottlen
##ultural
Craig
##GP
##Met
Archives
##atim
Copenhagen
Relationships
superv
aggl
somatosensory
Nova
cuff
##i2
##entation
difficile
PSD
disproportion
Hippocamp
M0
XM
Particular
loadings
enterica
##stadt
Resonance
eradication
gamet
hierarchy
semiconductor
zoon
##adium
Chir
patterning
Echocardi
titration
##uti
##titudes
Perry
##563
##capes
Gamma
depict
##euploid
##rowing
##linic
constantly
Chemicals
inheritance
Mtb
ultrasonography
898
Males
##olph
Array
primed
9800
pectin
Tools
packed
TIL
yrs
nucleation
774
Perkin
##ituximab
irrelevant
888
lake
##echt
cardiopulmonary
modulators
obstacle
Hild
##itatively
Ut
##itat
Anna
Schmitt
908
976
CPT
biodegradable
9700
##569
unsupervised
Hussain
Edinburgh
FFP
Kern
LNC
##g0
##ocyst
Manufact
dilation
inclusive
Hydrog
spiritual
844
Lange
fails
thrombus
kindly
Confocal
thio
overt
incorporates
##iglycer
Anterior
goes
Fertil
pharmacy
town
##otene
occurrences
duplicated
predisposition
Occurrence
CST
##erine
External
HNSCC
OK
eGFP
##roblast
ASM
NHM
warning
Fernandes
##ader
edible
C0
Gou
Moss
approached
984
876
##pinning
Virgin
Andrew
neuropsychological
Pittsburgh
pertinent
Diges
Firmicutes
Dairy
meter
Neither
,,
742
##aac
##aut
oligo
Veterans
ili
histograms
Recall
bulb
Dermatology
Thomson
LOX
Nitrogen
##orically
Membranes
Waste
chiral
Microarray
Carn
striatal
manifested
Aw
##rogl
Ars
Protective
Localization
saving
catechol
":
Nec
fing
Observational
Fellowship
Gros
sonic
##dal
1047
MOF
adhered
TNM
Rain
##onder
##ADS
##muir
Flem
sold
##lab
receptive
##672
Integrative
Zurich
##urface
cores
Palo
tracts
amend
Saude
Chongqing
C33
##tifying
Contact
##heumatic
Dougl
Component
.]
3T3
##3B
aspar
accident
##ochlor
##991
Adolescents
Houston
##osaccharides
RAP
cha
0015
762
##768
794
##occo
moments
immobilization
sigma
HBsAg
stainless
Nile
##andra
0025
##arks
topography
JMIR
Impaired
##udio
biosensors
IkB
vivax
##d1
instant
Orthopaedic
Compos
968
PCNA
Fei
filamentous
uniquely
Ubiqu
Wink
##fo
##vs
radiomics
Mesenchymal
##adhy
Venk
##etics
##rp
##onda
Susceptib
Hes
jud
metac
Disp
exploited
##illium
CD14
966
voxels
Ile
chimer
1957
colorimetric
commens
##iazep
Rubin
Scotland
grape
Wheel
discriminant
##ontinence
Nt
thread
scalp
Phosphorylation
Tecn
particulate
Bifidobacterium
dc
969
rotating
PGC
horn
##GI
##enum
contacted
triplet
SRS
921
e7
##_R
991
Plast
belonged
##enue
efficiencies
Director
Fuch
UB
##7A
effic
predation
divide
cascades
Quebec
P5
##Cr
##fel
##essen
##2018
persisted
RAR
sedation
purchase
H3K9
lakes
reactivation
SRE
Estimates
##phi
chimpan
tal
consortium
Spontaneous
*+
##tech
Peri
thermodynamic
euthanized
##uis
##ouss
1664
1745
leishman
841
##arthy
##igenetics
relying
Matter
jimmunol
lid
##orse
##ibrill
LRR
encephalopathy
##bm
##uren
##achid
butyl
Oxide
Famil
autoantibodies
871
jun
iner
Revised
predator
Herein
Vincent
manganese
dendrites
##ACh
##elastic
isomer
Hepatic
Mam
##ched
0028
crest
lymphocytic
##794
manufactured
Informatics
1057
feet
##auterine
hyperther
IND
Gerontol
ZF
##atto
##chester
reliance
Epigenetic
centred
948
east
##2B
1045
associates
##aza
adenoma
Markers
hexane
exceptional
S12
pD
glucagon
Hsieh
##plying
##ighter
allogeneic
cancerous
Reis
accommodate
lem
##_C
094
fluctuation
heterozygosity
AFP
porph
attribution
##esta
PDGFR
McCl
transcriptomics
##irium
showc
swabs
Johns
attainment
Hoffman
Dum
##hot
##hex
##enthal
##CAN
891
Barriers
actu
PZ
disequilibrium
speculated
##afe
enlargement
TLC
##overning
publishing
REFER
dwelling
##Pb
##amides
081
Bish
overf
##551
##652
silenced
Rather
terg
tinnitus
##bing
revascular
secreting
946
##db
##uga
velocities
Estimating
##inatorial
Darm
##cor
antim
aerosol
Beckman
Hematology
Reported
peroxisome
inquiries
Ow
##opharm
852
recognised
counterst
1962
##avy
therapists
854
B12
Depending
orthopedic
ancestor
##inearity
canopy
PLGA
cyclohex
Zu
##tha
##riks
multifact
ceramic
Pool
##jar
Recruit
luminescence
exosome
temperate
aligning
daughter
graz
tack
##ofer
0021
dihedral
anything
Height
792
Dors
##ytics
Recurrent
t002Table
nanocomposites
Wo
##ewska
shortest
ameliorates
Goldstein
##En
##exual
Endocrine
Hip
Lak
Pag
##arter
integrates
Matthews
##ropolitan
Anne
marketing
myofib
Build
##easy
Hox
sit
##GCT
##SV
##andon
inflam
1755
##agglutin
Hayashi
Anticancer
dysregulated
SMART
autophagic
0019
advised
CFA
TLR2
anchored
t0
##lock
##684
Lot
##_3
##akov
puncture
##plus
Trib
##oxidase
mimicking
embolism
Dl
wax
bioch
Hosp
##uler
##oley
Matsumoto
Hamb
Chiang
Kou
##F5
##arte
evasion
rescued
electrocardi
Chaud
prototype
budding
dentin
##ucine
##ASE
Tric
VIII
west
##onazole
apolipoprotein
Als
##rafting
FSH
statins
##ENCES
Brom
##arz
##romy
##ehealth
arteri
HUVECs
cyclo
Johann
Functions
Lipids
thrombin
dextran
DZ
##antes
092
fertilizer
##chaft
Eryth
1937
Claud
IgG1
Toward
##eley
indole
insignificant
histopathology
Guill
##prene
venom
hypotension
Pack
choline
prices
Pars
Ern
Giov
microtubules
zyg
##0x
Schre
presumed
##istar
orbit
Griffiths
##opa
scoliosis
##titute
progressed
Schwarz
Kow
Kall
##atergic
Parent
translate
deployed
HCT116
dodec
##upt
0037
didn
ordinary
Reducing
decon
ZY
##elis
Shep
chew
prion
microbe
##heets
869
floral
duplications
artifact
Days
Hipp
964
894
Fra
PAT
##cp
formic
##891
Moran
enhancers
rif
##gender
831
Knight
disclosed
Hardy
##anat
identifier
##683
intramuscular
polynomial
speciation
##579
##763
##bachia
Heli
RY
Typically
Armstrong
##anova
litterm
Cyclin
##IONA
inoculum
Questions
interconnected
##vix
SEC
orthologous
Nem
##afa
emerges
Trypanosoma
Mills
##5a
##bia
##QC
##isors
##overs
formally
duck
Surge
Resistant
User
XLS
Zah
##ische
compiled
##urred
Mexican
Weinberg
underlie
##aney
Refer
merely
##ellate
1175
abnormality
adrenergic
Migration
Bhattach
##HG
evapor
Schm
##atterson
autoimmunity
DFS
hydrolys
contraceptive
Huntington
Hak
YF
recon
micrographs
Vl
1090
##ostomy
neuroc
Powell
bridging
*(
Hered
PX
##fm
##olves
SPECT
Wolbachia
Craw
##pene
##enone
Particle
Bioscience
cured
prospectively
remainder
##imburs
Larsen
##pls
paragraph
Absolute
synapt
974
Pathogenesis
##LDL
Navarro
934
881
appearing
practitioner
t004_Table
832
tank
spines
macaques
seedling
lysosomes
gases
spro
##econd
##ogon
decide
predefined
harmonic
Yad
##SCO
Geriatric
##artan
Spr
FVC
Remarkably
([
Atrial
##mas
Seat
##ionate
##plicating
##rophin
thirds
boron
Anthrop
tachycardia
1004
thalass
DAB
quit
superim
Equations
Font
Sta
Olson
cultivar
##aye
##urgery
burg
ciprofloxacin
Damage
928
1959
Abe
piezoelectric
##chin
socially
Fuji
Hashimoto
Recruitment
944
##igms
1018
asynchron
##564
streams
Forsch
##ulse
consume
unbiased
adaptor
g006Figure
Pandemic
jem
##entanyl
trying
##ipt
##ectom
##arians
disappeared
##ivolumab
Hirsch
Encyclopedia
Mosc
else
menopause
Conduc
checking
elbow
Osaka
RAGE
Proposed
##ustration
##764
Siegel
outlier
ICT
Vu
##Sc
##wt
psychotic
Solutions
Lipp
NO3
XI
Excess
DRG
POD
Say
##VR
forg
994
Malawi
Intrav
Approaches
Typh
misclass
##transferases
cryopres
Stockholm
GGA
##luc
laying
anaesthesia
fellowship
Cris
Subc
Michel
##ULAT
##LN
Chitosan
turning
Bm
Sasaki
##rP
##sci
favored
aliquots
##oretic
958
graduate
##elor
learners
##eliac
##AAA
nomenclature
rendering
REFERENCES
unified
Record
##anoic
Fe2
scramb
campaigns
Morrison
FAC
##2b
##icola
hyperparam
##orrhiz
##akrish
POC
##urning
##uso
##usz
deer
qualitatively
Verg
win
1027
##echst
unt
reflective
MCS
##694
precipitate
Spar
Resolution
Metastasis
##ensch
Burke
contributors
##actone
##oxane
##2090
##ambiguous
Morphology
terminals
Gardner
##xual
Proj
Fraser
##ushima
Takeda
##pur
communications
proliferator
passages
Gomes
##gs
##unders
pcDNA
##esi
##ipper
Concerning
##ilm
spiral
esophagus
overdose
diph
housekeeping
METTL
PSC
1033
scarc
##assen
884
##cohols
LDA
Schulz
Cm
Cover
fpls
##ationally
##lysis
##ongru
ECL
Sax
tern
##uela
##EVs
Adherence
residing
##itized
humidified
BOLD
CML
anticoagulation
logarithmic
0035
Efficiency
Professional
8674
Pun
s105
determin
MSE
Physician
Email
##graphy
1S
Nob
weaken
Neigh
conjugates
cracks
attained
##orio
evenly
specialty
AAG
Recher
Vogel
##ibi
Newcastle
##heses
wavelet
942
stones
enanti
954
cleared
opioids
SOD1
Dickinson
Issues
1542
remember
Schiff
##hesus
centrality
Females
pG
inbred
##rupt
opportunistic
potentiation
Burns
GEM
##level
relapsed
biotic
CAL
nodal
phospholipids
epochs
Epidemiological
Aar
868
##acetate
payment
aberrations
D0
Samp
s0
Ortiz
goats
Aziz
)|
=.
Nerv
##kamp
1025
quadrant
fission
##respons
ERP
ALDH
costly
Pra
##pu
##alid
sulfide
##VP
##uran
##mittees
Cec
OSCC
##via
##plastics
Malignant
Tomas
intergenic
axillary
triangles
ROM
lytic
Physi
##TH
##lein
comparatively
uncovered
MPO
motivational
contradict
SIM
ru
##rus
qualified
MEG
triangular
Amplification
YES
Zam
##asz
##ucting
influential
DMF
deprived
Divers
unve
SPR
Berry
Mohammad
5deg
##Cell
subclass
Myo
regimes
Square
##iflozin
U2
dict
pedic
mesenteric
##Fold
##astically
##emal
meiosis
1742
##icki
environmentally
1207
Pell
trophic
x2
##dens
##Un
##ende
##obicity
EC50
Hoechst
Hutch
Ping
##body
##enb
##aterally
renewable
Pale
1947
participates
Bristol
citizens
detoxification
ki
##isters
##enca
dehydrated
Ultimately
##ilus
orches
1245
Strom
booster
manufacturers
Listeria
Cin
1020
disaster
modelled
ACP
centroid
adipocyte
Sri
triph
airways
ovaries
incentives
Neurodeg
##arajan
TaqMan
##Re
STAR
reproduce
macaque
photons
##enopus
scrap
2e
##eira
##identified
cytoskeletal
S1600536
laryngeal
sort
balancing
Edition
Gest
##erin
preschool
862
crosses
Altogether
##czyk
##rolizumab
biotinylated
Cart
Irr
O7
synten
##anka
##ometri
Authority
Mohammed
Soy
li
butter
Fred
discussing
benzyl
alleviates
Jen
Lon
gt
unambiguous
biologic
878
Henderson
1757
1009
outgrowth
repressed
Lieb
##olite
posed
colocalization
Immunobl
##GGAG
weighing
bifur
Fatigue
Yoo
##thetic
Federation
Numerical
##idene
1077
stocks
nitrite
##electron
Church
CBF
Chiu
##cat
##mith
Clay
COS
##ijer
aquaculture
neighbouring
Ottawa
ZO
##inities
951
emergent
modulator
Franklin
Amar
##hio
consequent
YW
identifiable
cytology
polyps
parentheses
Scr
UD
Uiso
mineralization
cheese
NCC
Ud
washes
Antibacterial
0034
concaten
GLUT
Medicare
Shimizu
transposon
S15
dying
rt
hypercholesterol
ambulatory
bottleneck
HSA
PEE
##1p
robots
Hydrox
D5
Along
Conver
CD133
MMSE
FAK
arrowheads
vegetative
anomaly
Queensland
QL
##uru
1049
Basal
quantitation
TMB
Johansson
synthetase
OCD
##omicro
##TTT
heritability
deposit
inflamed
961
882
##operiod
anatomic
##ottir
Agarwal
RANKL
9b
Sag
##acious
##urts
Valencia
Known
Goldberg
##ubiquitin
VW
bins
##pain
1460
17A
##embrolizumab
Nanos
Coronavirus
##--------
Hypothesis
##icum
##ptotic
undifferentiated
MAR
NPV
suspicion
##foli
##vertebral
Shig
FAO
Cumm
unhealthy
##CAGT
bottle
Cic
Gynaec
Lal
Vie
prostaglandin
##roat
##asch
Infer
activators
##ashita
ECMO
PSI
DSB
amplicons
appointment
Borg
Least
Movement
Cary
##yk
##oxib
##equencing
Ll
pec
reactor
cylindrical
Baj
cilia
##ometers
##CAP
Interv
asking
MATLAB
prosthesis
Vazquez
Medicaid
Douglas
Born
H22
Kak
ip
##timulation
Carroll
aneuploid
catabolism
293T
Mehta
##Competing
H21
##d2
trypan
oval
phthal
therapist
cyclophosphamide
971
Garr
pri
##CAAT
ICH
F0
JX
Naj
##isin
##adan
meticul
Valley
Capacity
Taipei
YA
governing
qualities
Sensory
GTPase
0027
upward
1119
categorization
Predicted
False
##oyle
HMM
##enberger
Spectroscopy
Bates
##egan
Ef
Garg
952
culturally
refrig
Santi
Proteome
MXene
micropar
1G
Pair
nail
(<=
bbrc
Ory
cM
carers
CD31
Falc
##Li
sequelae
UAV
Reproduced
sourced
fumig
099
Mond
casp
##Sh
##DV
histologic
erythropo
Streptom
hydroxylase
RPA
Yeh
analytes
Practical
##picillin
Fun
cooking
amen
paradigms
Zuo
##adis
##fully
872
##opoiesis
Hochberg
measurable
cleft
dimerization
##ternational
##ercial
unsaturated
retrograde
prere
defence
MAE
##oplasts
Macrophage
hydrocarbon
Jur
curved
gallbladder
AIP
Ral
##usi
descent
PDE
glycolytic
NHL
menopausal
Later
Mok
gently
##tez
neutrop
docetaxel
Mathematical
MIS
Tin
Modelling
issued
Plasmid
3E
Dial
paw
##meyer
##oprol
expir
mutually
sweep
##792
beds
Plot
digestib
Baner
pv
##011
---
Alkal
profit
CCL2
##osel
##antle
breakthrough
Hsp90
Fg
##HB
1400
##ankar
oscillatory
plastid
furn
##Fisher
encounters
##ostatistics
Specim
jointly
undetectable
Tah
adenine
Device
turns
batches
Bradley
Household
1035
markets
##583
policym
corrections
Bulletin
##rogram
ERa
Hain
jh
Duff
orn
##vik
##hae
cavities
masked
carotenoids
Aless
leader
restrict
minimized
Aggreg
Bard
Schwe
AuNPs
styles
##illard
##olecule
Repeat
telomerase
Rosenberg
multifactorial
ribose
##uyama
VOCs
AX
HGF
Lp
Pach
##ecke
t005
noncoding
libitum
Patterson
##rist
reimburs
proposes
clay
Organisation
phenylalanine
Rash
measles
cytometric
##traumatic
outstanding
confidentiality
)**
##penes
ADR
PHQ
G0
Thin
incontinence
1250
spacer
plantarum
##anthin
lumin
thigh
##ocryst
leveraging
Jorg
##iou
incon
SCFAs
##itecture
densit
##rically
##estry
1134
##oplatin
epidemiologic
##rahed
7759
Xenopus
cT
##americ
union
Statistically
sponge
rectangular
Wistar
##r1
dsDNA
Causes
Wide
##anski
ACK
Dysfunction
Macromol
dyspnea
##omatic
##azo
Collaboration
0018
Extract
PloS
Immuno
cochlear
Geng
GAS
Weng
1137
pherom
##ystyrene
##ehr
Oster
Guideline
alkali
accelerates
Webster
Mate
##esch
MMPs
##orporeal
EDS
Milk
mans
##kit
ranks
suite
Foxp3
micronutr
##n1
convex
##romised
1900
inventory
FASEB
SGLT2
RNF
wearing
##otecan
Conversion
ligated
Birm
Cumulative
lamp
##ellites
##adata
NMDAR
lipoproteins
Atlanta
##cq
##ersh
counties
estimator
941
pharmacists
tracks
moves
arrhythmia
anthocyanins
SAGE
1289
impression
##CCC
Posterior
kerat
electrocatal
##aline
chair
Modification
rho
##rals
Epilep
rigorously
Elliott
offl
allograft
##ullah
integrins
982
Kaiser
Nair
##ih
##Sp
##Journal
##esse
PC1
Estr
Empir
MRS
transloc
melanin
MYB
spermatozoa
##phere
Seattle
Sac
##hosph
1112
##ressor
definite
constituent
ascorbic
mechanically
neurotoxicity
Nilsson
Dall
##ugl
##rini
mitophagy
Parkin
Hungary
Residual
Successful
Entomol
SICI
mE
1249
0017
##comms
anisotropy
phil
micelles
Events
CLL
valued
Rabbit
KOH
Amazon
Streptomyces
Methylation
mN
guan
actors
GLM
##eradish
C34
Hahn
Wing
funnel
fphar
##leb
##idea
antihypertensive
CPR
Saunders
DLBCL
hairpin
fluxes
ICR
1135
elite
##ocarcin
SOS
isotype
homogenous
Campos
discontinued
##AX
click
Al2O3
Abuse
Consist
flasks
Wik
vertex
fathers
worm
##MG
responsibilities
Kuhn
SSP
uroth
##inois
PML
cameras
##acements
Zhen
glycan
HCWs
durability
##acrylate
##akova
submitting
hiP
##itri
##ofibr
algal
##putation
Siem
pdf
mGlu
##othermia
ALD
repetitions
coagul
CD56
ferro
spectroscopic
##empfer
Municip
E4
lavage
##aru
phr
xenografts
TRAIL
Interferon
Dt
POP
pN
##imetic
##othorax
colloidal
GPX4
##icially
##uger
##ogeneous
Naz
canc
gar
Fruit
declar
verbatim
vimentin
1750
cytomegalovirus
##GAA
lethality
Chaudh
##ICs
##word
##therap
"),
##asmon
Chau
##triction
Nurse
ci
##cus
characterisation
Address
Verma
##ovolta
Paste
capita
TRAP
##kens
Chai
##syg
ALK
ACR
V4
##ogan
culturing
Multimedia
4d
hpi
tD
##olism
##trand
##oct
amn
proteinuria
malt
Levin
Webb
convergent
Nev
modal
unpr
spite
obsc
Perspective
Cy5
cinn
gins
##BNP
Bea
3233
episodic
##tipation
Lambert
bent
##aglu
##izadeh
##obarb
##ijs
substitute
MIR
supposed
##ARS
hypothyroidism
MMR
auxiliary
Cuc
till
##cement
##igned
demanding
CIN
Pei
Gibbs
neglect
Interpret
Jenn
##fin
revising
##dorfer
Fon
Islands
Manus
Integrating
ram
1070
workshop
Franco
immunosorbent
Hamburg
rearing
periv
##572
Srin
Arb
apps
Removal
vicinity
##dT
supine
Proteobacteria
fuc
untrans
Alignment
##echanics
pean
##ACs
foodchem
pressing
##783
command
Dixon
Dew
1060
1110
requests
cardiometabolic
educated
Semi
##yotrophic
isother
observable
972
disciplines
PNA
Zone
##I3
alert
##ovar
endotoxin
realize
##MENT
Teng
TAA
##iji
PIN
IPF
victims
favourable
##D88
1048
Blum
PAI
buildings
prerequis
Hug
exported
enfor
0024
unemploy
##eve
1075
Secret
Alterations
Tz
Poli
embryogenesis
Dp
Graphene
counselling
Your
##FM
harmon
appointments
##idy
organisation
CRE
incubating
declining
##cephalus
vibrations
Fungi
Jenkins
Certain
plating
NM_
ambigu
Kamp
##1B
decoding
Transient
pneumococcal
niches
Brink
singlet
Batter
Stere
##Rxiv
1910
overlooked
6C
Boss
RAB
SIG
Memorial
##ujo
##plat
Reyes
Salud
antagonistic
Langmuir
Rates
Tek
Implant
feb
##ycycline
Srivastava
databl
Presentation
Ferguson
BPD
Rath
##otheli
Repe
separating
CNVs
Mode
nothing
##oactive
##wr
##ample
metalloproteinases
##xx
1955
##akin
Enhancing
fingerp
subcutaneously
##eez
DEX
triangle
Warren
Hap
totally
Dang
Lomb
Vul
bivariate
25th
##ningham
Microbe
intraocular
Congen
husband
Just
io
tape
##arek
931
Smir
##anchi
Mathematics
Barton
IUC
corner
Guy
avenues
Ober
##UA
##estin
scit
##aval
##cope
nationally
ignored
fpsyg
7th
##plots
Revision
Security
perfused
forth
1440
Spi
dynamically
Quad
methotrexate
Goodman
Job
cureus
Boeh
TDP
rejected
##acylglycer
##adhyay
nets
confident
neurologic
amylase
gentamicin
unint
##CTGT
curated
Experi
relaxed
underestimated
celrep
immigrants
shoots
##_A
##andial
##unger
Transcriptome
-'
1085
1127
Clara
Matrigel
Forty
hollow
##idou
Lopes
borderline
memories
protons
##hofer
IoT
##Ge
##quer
##762
psychiatry
Este
Greater
##ocomial
Platform
##czak
8a
Much
##012
##1600
remed
091
Lyon
Consumption
AAP
Kend
##bauer
##inite
1065
reared
immunogenic
terminated
Reactions
lymphomas
accidents
tele
##fraction
permeabilized
Gand
Ong
Pc
##anical
##ulans
MEGA
nasopharyngeal
telemedicine
Sousa
gramm
borders
Jeon
kJ
##cia
##lie
##ml
shut
Bruc
adjuv
Gustaf
##edd
incongru
assesses
60degC
capill
fractionation
HTLV
Heterogeneity
CTA
##borg
KV
962
photoperiod
radiology
logical
regressions
##otropin
Finnish
plexus
Fluorescent
trn
risky
##769
polyunsaturated
Typhimurium
##LU
##acle
Weighted
childbirth
portable
##D6
unadjusted
Schist
1091
##represented
gum
##jun
intent
reconstructions
synchronized
cornea
pigments
##iazol
932
##MY
ijms2
appreciate
Riv
##pecified
Drmin
Drmax
predators
skewed
Pant
##CI
##vular
1956
892
McCarthy
##Script
Staining
PROT
launch
Throughout
ApoE
septum
ripening
glutamatergic
GIST
dystrophy
Adsorption
Fuchs
Vign
##inas
Harvey
gaining
##DN
multilevel
Investigating
normative
A0
COI
lymphoblastic
NH3
extremities
Richter
exploitation
##stock
##neu
selectin
Junior
Wak
bioge
inclusions
fumigatus
##oui
Wheat
Polish
Kinetics
6th
NSP
##icides
evening
vesicular
Herc
##flex
##otactic
Brid
##SR
##andibular
Asn
swab
fluorouracil
aneurysms
1036
True
Regular
##eba
waveform
Maxill
##penoids
insensitive
Cooperative
localize
##0006
##roscope
piper
exacerbate
##dynamic
##placement
prison
bup
e13
1534
Para
heteros
thermo
Know
Iranian
3e
Cg
Heal
Lept
lichen
##cock
relatedness
MAF
##shire
Bacteroides
ingredient
bridges
coumar
apert
##ofac
invasiveness
Neurot
Sustainability
destroy
Recherche
MIN
##hof
##acute
##osta
HSP90
sinensis
Polymerase
Pis
ncomms
##ych
1556
overcoming
concurrently
SDF
phosphatidylinositol
Aurora
UR
Snyder
SNAP
CBP
Kerr
Nine
tut
ug
##enbach
##ayo
subtracted
ours
trout
prokaryotic
v0
##otta
Nurses
QTLs
##osomiasis
Hierarchical
CSCs
bron
##UG
Assays
nitros
Fo2
Banerjee
Ks
Rocha
pacing
##uters
1026
slip
Bloom
Cereb
Benjamini
##aglutide
QI
resemble
ataxia
trapped
Morb
salv
##jad
Cl1
ERG
toxicities
Ligand
ROP
##had
##riuretic
Spir
##0001
homozyg
Subram
Importance
Neutrophil
##arelli
##rolimus
ende
Immunotherapy
ESR
Sepsis
Nephrology
anthocyanin
##patrick
Iowa
Pent
##Me
certainty
Schultz
guinea
circulatory
proteolysis
VTE
Cyan
Tap
adma
polyd
congruent
##KD
##oron
##tri
1116
crim
Areas
Infrared
Joshi
sparing
noisy
impuls
autopsy
Blanco
Endo
Burkh
Nin
indisp
Macro
reflectance
fingers
Bush
##orig
##obut
accelerating
km2
bacteriophage
cofactor
ciliary
heur
Kaur
MPs
##artis
1532
CONC
##International
varic
tracheal
Birmingham
1749
Almost
##ublin
Accurate
Dud
ZH
ai
##5Y
1140
##Clinical
transferrin
Centro
Melanoma
chips
##ubric
Investigacion
updates
spliced
landscapes
immunoassay
Rol
inositol
surgically
Dek
##isse
blend
SCN
loos
##otenv
Jus
bod
filler
##Lab
##0004
Erd
##enthic
##chenko
analysing
##sein
scitotenv
Bund
1213
##orship
##ycop
audi
thymic
Fabrication
POM
dereg
alcohols
plasminogen
Mora
Chapter
Particularly
Bold
stemness
linearity
##otube
Heg
##abeth
##entist
stimulatory
reasonably
##ramolecular
happen
Cunningham
fostering
bariatric
rumen
##hog
##usa
##ticism
CAA
Abraham
Reviewers
Endocr
polyvinyl
inhaled
LAD
##norm
Photo
##rowser
1918
1746
pyridine
STATEMENT
compensated
nevertheless
0023
twins
Hiro
Kemp
##fan
gratitude
monomeric
Pred
ICM
Sok
##bed
selen
Insurance
methicillin
##agliflozin
##KL
rein
1525
1477
##issive
elusive
nanofibers
ThermoFisher
Russo
recapit
2n
##oly
##ulan
Trace
acquiring
Malik
IVF
Copper
confluence
##apatite
1948
##azawa
PEP
INTER
Bek
RUN
VN
##kaya
##oria
depolarization
isoflurane
anticoagulant
Kath
##ibe
imidazole
PDI
##ECD
##oupling
Caribb
sixth
alternatively
subcortical
surprisingly
interior
testes
GPT
iliac
Fro
folic
##ennial
assignments
enrolment
TLS
##andro
formulas
##ieties
autocor
Krist
Holt
1160
queries
underscoring
Superior
Bowel
WIL
1940
migrant
immortal
RBCs
Same
##hospital
diat
2322
hpf
##H6
scheduling
retardation
KIT
##apopt
necessitating
phyla
complemented
Pilot
Darmstadt
Fit
Loc
rheumatic
inferences
convey
##othi
Pharmacokine
methoxy
seminal
vitre
1F
aeti
infecting
Trim
Cortical
sonication
Araujo
Lec
scrip
detects
ordering
OI
##itone
Speed
Oslo
IPV
gang
gard
1211
analyte
Pathological
hypoglycemia
Aver
##lr
##ductor
Suppress
retest
returning
##bee
##glut
NSW
interpretations
Automatic
CTCF
Package
V5
Vij
hT
##dale
##Long
##VEC
Discrim
crystallinity
Hanson
intravenously
BZ
##mM
opposing
lyophil
asterisks
revascularization
ENS
Pren
agitation
##arty
##atism
collateral
basement
Column
CH4
facilitation
websites
pluripotency
Pandey
Gb
Zen
claud
##ludge
spend
UniP
1700
Examin
Spencer
Scores
hypertrophic
doubt
Derm
Ya
homeostatic
Metabolites
wards
alph
resis
brand
biomolecules
##inned
GFR
empowerment
ruled
1079
brainstem
Boyd
##breeding
uniformity
Brasil
Rw
wj
1743
Meat
##0005
facts
PTC
ijc
cervix
reservoirs
charging
':
Kats
expresses
EAE
Objectives
L5
Mast
rum
esc
Hypertens
1X
Bland
Gain
told
##etamine
##akar
Regard
phylogen
Ces
##bank
exacerbations
Eric
Ord
##ringer
groundwater
B16
Laf
##osamine
Gap
Nol
zeta
ResNet
afferent
contractions
alkaloids
S100A
Require
extern
Dx
##othermic
perfor
Fibrosis
Chromatin
restraints
UniProt
Sb
##wi
dynamical
remodelling
alleviating
##analysis
(|
1130
paracrine
bioinform
combustion
Diffusion
##oisomerase
immunoprecipitated
Mood
a0
parathyroid
infrequ
remind
Arr
federal
empirically
terminology
##uclidean
2120
Tx
##essa
##ocycl
##ymethyl
MAG
ferment
ye
babies
prosthetic
##iagn
1076
staphyl
seroprevalence
practic
superiority
Bradford
Deuts
overfitting
Fax
HSCs
##ogy
s116
uneven
matters
Brow
Must
##tage
colocal
Robot
polyphenol
TSC
##reted
LSD
augment
D6
LIF
Pelle
t2
##utta
creativity
ribonucle
Strengths
Via
BMDM
Computed
rhod
erythroid
Illinois
Fah
##nas
##omethyl
Thym
1118
Income
tolerability
constituted
corroborated
Penic
cum
pill
##XT
Alzheimers
Kass
Mey
RFP
buccal
##high
explants
Coleman
fluorescein
nuanced
Susceptibility
Cour
Hit
push
theor
shielding
Blast
paralysis
syphilis
oryz
##erme
psychotherapy
Castillo
unfolded
glycosyl
##emisinin
lubric
##fib
##oton
##ureth
##anges
stratum
novelty
Poz
retaining
CTX
copolymer
responds
Jansen
##ocystis
prohib
##uche
Opportun
troponin
##~~~~
##empferol
Strand
electroporation
FABP
##aliplatin
Fear
House
##oub
##ALS
##arius
0026
2165
tender
MWCNT
Prasad
*-
BAT
Nerve
gg
truly
1468
CBCT
Woo
##asters
##egen
GnRH
e1000
##prof
multiplied
lymphaden
PS1
sterilized
##HCO3
Helm
##I2
1087
##okinase
##CRT
validating
News
amyloidosis
retrotrans
ternary
Vero
##ocaps
nuclease
counterpart
anastomosis
Manuscript
RQ
jour
##Ff
##usal
scin
Result
decomp
##ussels
neovascularization
chromatographic
BRCA2
##oformans
febrile
4x
##ulary
Thorn
##ocol
1192
interdisciplinary
COR
NM_00
OTU
Holland
tremor
Chakrab
TCC
c2
1150
shar
Transactions
STM
cardiomyocyte
keto
##CO2
15N
spars
##ATE
arrangements
Bernstein
prioritize
Andrade
VJ
##ilance
enum
0067
Storage
##ATP
Nanomaterials
LX
Typical
##alcoholic
Addiction
##orrhizal
rehydr
##asek
Assisted
uncor
Used
comfortable
##achnoid
ghrelin
Museum
echocardiographic
safer
ellipso
##ystalline
##oes
##ersive
synovi
heterochrom
Mineral
NFAT
Griffin
breadth
bubble
IAP
##2008
##ropylene
Gay
Lian
##ikov
Workshop
Rivera
physiologic
Lup
##imp
##child
cooper
virions
Order
Consult
Hunan
stomatal
Bottom
rash
##PN
##wara
imatinib
Stu
##AGA
epidemics
societies
##balanced
navigate
##hand
##ku
##KI
##ibus
##azep
##2R
##GGA
corticosteroid
##ersham
transit
Intensity
Led
pbio
Probes
ICG
milling
MATERI
##CF
1125
decimal
carbapenem
stigm
PSM
fishes
Opinion
multilayer
pCR
##HIV
proactive
##ellosis
NKG2
hydrophobicity
embolization
CSP
tracer
Plastic
##2009
resembling
rhinitis
indispensable
Regardless
LQ
##igi
##eston
quenching
tent
##cio
##ocrit
pntd
percentiles
tDCS
##atr
ori
##acheal
migrating
carboxylic
Wester
latitude
##jab
##651
Register
bmjopen
thousand
TTC
1051
caring
##0003
##661
liquids
Cameron
Solomon
endometrium
Koll
##uder
##inda
dropout
happiness
Personality
Singer
##NH
thing
1517
chemiluminescence
cesarean
##cis
overwh
conducive
Marco
Gln
Antarc
pedig
nations
##zak
##opulation
21st
Registration
positional
Cytotoxicity
##odontics
Dawson
lentiviral
lentivirus
Sier
tilt
##erus
##751
Regions
ORR
creative
##iformis
happens
gambling
enterprises
Df
##osures
neoformans
CA3
##abaq
Virginia
Caribbean
CABG
transfers
##phalt
Sas
Tmax
nal
##reth
##tedt
Lie
##ecki
hematoma
Congenital
vr0
##cb
##aB
organoid
Generalized
TRIM
duodenal
CFS
inherently
Mother
shall
##ukh
plantar
Cultural
Cros
bs
parac
downward
meningi
anesthetic
myr
##VS
registries
##692
snow
universities
diaphragm
a3
##_J
1519
Dean
##PRSS
microspheres
synchrony
Coulter
Vital
##zman
prag
Medina
solitary
##linger
carcass
Ting
renin
referrals
horseradish
RAM
##tega
Which
Delgado
Phenotypic
##amilies
XGBoost
saved
##astig
utilised
referenced
mansoni
e8
##inos
##ipolar
ICS
gastr
IGFBP
Neurons
##Conceived
//
cens
1932
75th
Agreement
recognizes
confirmatory
$?
Rica
##uni
##entine
diarrhoea
computationally
formats
Dn
##l2
##mons
toc
stents
infancy
GRP
Kell
##retin
allosteric
##682
safely
Arteri
##orylated
delirium
uveitis
Hase
Marital
histories
Metall
haemoglobin
Concentrations
Coefficient
HCs
Wars
bark
##QI
##ingual
positron
Forum
##aird
overlaps
Novartis
Rong
##enst
disturbed
Intelligent
Lia
##obiol
ATC
creatine
predominance
+),
Bron
shortened
harbor
heterodimer
inte
##etitive
fonc
##anting
##ylon
##recht
##odermal
##ocaine
Natal
lying
##ambi
chat
callus
Ehr
##requency
subspecies
displaced
Seasonal
burdens
18632
}$$
Rasm
binder
Complementary
Articles
Grun
HRMS
galactosidase
Clear
LZ
Nay
rhesus
affinities
JCM
TRPV1
##amid
Blank
TPS
como
1162
modifiable
Parental
##attan
synergistically
Substrate
Census
pumps
Barber
hydrocarbons
hamper
##thi
1054
neurite
Neumann
Andrea
KCN
Bovine
Euclidean
Fol
trastuzumab
Blot
CCN
shortly
##proliferative
##_F
Grim
hyperp
Pharma
budget
bats
##eminal
visibility
installed
GER
Nij
infective
##luent
mathrm
Langer
vasculitis
supercapac
CD86
Heavy
TMPRSS
masking
Dunnett
5G
nests
##lec
##P5
biochemistry
PHC
publishers
0120
##itivities
Married
salic
preparedness
toluene
2R
Bic
##oura
Clar
CAF
necessitates
IRS
LSM
Gav
pertaining
##tinence
Inters
adenomas
##cts
1179
Retinal
Sage
SAT
##uents
##ithi
ampicillin
Submission
returns
##omegaly
Fever
ridge
sy
oss
##ozoites
osteoclasts
Witt
##tools
##A5
1044
proBNP
##egler
simulating
interpolation
p1
possessed
ssDNA
hesit
NASH
##osexual
##ofect
Radical
scalable
Arctic
Wool
Thir
Endogenous
perfectly
Til
rituximab
reacted
##agram
##regon
telehealth
polyph
##ehydes
Papers
dissociated
intramolecular
##HO
##isti
implied
dilatation
Kod
1059
casein
Cytos
Kash
Thal
Delhi
pharmaceuticals
Castell
brackets
Siemens
Hear
T5
pter
twe
wavegu
,-
pmed
##icit
1538
Asterisk
##tillation
##ASP
Lux
instar
Sanders
CID
NAT
ramp
##icos
1752
unin
purely
Organisms
##n2
intolerance
Huo
Molina
laminin
ZM
##far
##othelioma
N0
##ein
exosomal
imprinted
##CCS
innovations
Enhancement
homologue
eigenval
Gulf
Km
Loz
##acz
HTN
##F1A
aroma
Intrac
##531
hereafter
strengthened
##igenin
Bound
hu
##V3
##irt
organisations
PLA2
necro
noct
Turkish
##wu
1149
arabin
endocarditis
specifications
utilisation
salient
CPS
Caps
ISC
ecc
rug
blade
##oyal
Co1
NSAIDs
5c
##izin
Persistent
counteract
Skeletal
ESCC
1214
parv
##estrogen
##eks
##582
Manchester
sleeping
Giann
##oleic
SHAP
hybridized
Hols
Suppression
cylinder
Mail
##pool
probing
##knowledges
smoothing
##Ins
TOR
civil
##ip1
##akumar
Sten
##otherapies
hyperlipidemia
sla
##0002
Substance
APEX
morphologies
Humph
diphenyl
energetic
Anesthesiology
Veg
Sorensen
Sach
WY
##log
##posable
CTG
Mammalian
Speech
Ich
##urst
##adow
metadata
dephosph
CCM
##opathol
container
phospholipase
efficacious
Pip
VUS
marginally
streptavidin
intraperitoneally
BX
Boz
acknowledges
expenses
Crude
Dre
1071
1574
Alves
2296
Lowe
Homo
trophoblast
Thai
##CC1
Infant
prolactin
Impair
satisfy
Hasan
glucocorticoids
Mom
shop
##ollen
sequestration
##imo
abrog
##urry
Genom
antipsychotic
Amyloid
Gott
##r2
##abad
Chick
3758
Huan
substanti
legend
Photos
GPI
anhydr
oxytocin
IL6
Accession
AUD
Hawai
Latino
Gri
Kappa
Vos
##aton
##iscal
1122
##isman
##tigens
localisation
EMA
SAINT
Pharmacother
resembles
Aortic
##phase
0031
##aley
CTR
pupil
revisited
##original
BNP
Trav
##prandial
mounting
restoring
unpredict
O157
Rp
fentanyl
Amersham
Relation
coverslips
polycystic
equivalents
Pasteur
TET
##EI
##ansky
Stark
PPARa
Mukher
Hortic
##4A
antidi
Validity
Visc
carcinogenic
chronically
pepper
Components
jejuni
##oC
##KS
##alate
##iday
##heet
colonoscopy
elementary
Chengdu
NIHR
LASSO
leishmaniasis
Yadav
Gha
##TB
peel
justice
grazing
MPA
##lea
##romatic
Problem
R6
##with
metabolomic
STI
nmeth
smoked
gradu
owners
##immer
retinoic
Clustering
Hew
Wah
e12
oroph
##ATG
simpler
Sirt
C36
natriuretic
FLT3
Lucas
dentate
Private
ZNF
1954
psychopathology
aerial
restrictive
Toxoplasma
Barker
##anck
##nesota
Fleming
Mou
##Red
##nm
##estone
hypo
intrauterine
PRS
Applying
##Image
##inone
spaced
STS
Mitochondria
Coom
myocytes
certified
messenger
aldehyde
Fm
##_c
orch
calibr
ILD
hydroxyp
SY5Y
##hop
##anga
worry
shaft
emitting
Against
reconstituted
producers
powders
Medicinal
NETs
Janeiro
stro
injecting
Eukary
Kik
fusions
jaman
##nut
##erea
##timalarial
6D
##nier
##urf
distract
Corning
glucuron
eco
summed
##Name
relational
affirm
ADM
AS1
Defining
Petri
Biomater
spotted
appreciated
storm
compelling
clav
##ammer
drastically
firstly
BioL
SUD
Cultures
##eorological
zoonotic
##lov
throat
##aner
##enicol
listening
Ikeda
Hygiene
Tir
##LO
##ucal
##ivel
endosomes
bruce
Schae
acidification
nanor
midgut
PFAS
AHR
Harbor
Bob
Direction
hept
##earm
radiologists
Ohio
##asu
hydrolase
spore
##huis
knowing
DNMT
antidepressants
puberty
negatives
##heimer
experimentation
DALY
coales
combinatorial
Eck
##anez
electronics
##pendorf
##gart
Pathogenic
Tsuk
governments
Fujita
Congo
fox
1535
oxo
##782
ESBL
BAS
##anov
##udh
Mediat
HCPs
C35
##nic
1953
##ortem
Scholars
Fe1
Muhamm
Cyber
Headache
customized
Williamson
Ludwig
Vries
##lines
1945
Probe
mobil
Countries
Orthod
fulfilled
##Corresp
##Back
whenever
##ATION
Estrogen
ou
##doc
1147
##ultured
Astra
steat
rm
##Micro
##idol
Except
basin
1203
GaN
disclose
Lorenz
destructive
AUT
##_D
Anten
Ab42
histones
arthrop
Nog
lighting
##Cre
Replication
Insight
hindered
capillaries
##apoptotic
Neto
mur
oesophageal
initiates
folded
Urine
taurine
commensal
neurocognitive
typh
CD20
Appar
Preferred
osteogenesis
Extensive
buck
##zon
##ICA
Dias
contraind
supplies
immunocompromised
##dorferi
Jud
Kand
Injection
remn
Technological
Movie
mandible
rabies
Minnesota
Retri
consultant
xylan
)}
jet
##tef
arachid
Sidd
dangerous
magenta
Bres
ink
1586
posttrans
chemoradi
terat
Eating
GUS
hook
rewards
resolving
##ubo
IPTG
MyD88
eosinophilic
forebrain
##etuximab
6M
PCT
##ble
skilled
.--
adapting
Boer
##atumoral
CCR5
##aternary
inhabitants
Crawford
policymakers
zu
##ifolia
Flavon
K562
frog
pione
##ecia
Miner
elucidating
Orthopedic
cid
pages
solids
VSMCs
Tianjin
texts
brucei
fishing
##C12
interacted
Spectral
glycans
thrombotic
Ischemic
Bid
Cory
Fixed
thyro
##arat
##izhou
dipl
detergent
biore
Couns
Osteoarthritis
neuropsychiatric
vinyl
B4
mantle
##oust
Variants
Hold
##lik
##vet
valves
Brach
phosphor
STZ
deduced
##Acad
e20
##pora
Universita
outperformed
mortem
BIC
YB
1030
##chol
Zag
anions
outflow
Accel
##ardians
Regul
##aggreg
molcel
gentle
KU
vap
##DT
Marques
SCLC
physiologically
Partners
TyG
dormancy
Hig
##olly
1253
authority
recycled
Bun
NBD
1157
proteinase
alleviated
Heatmap
Lazar
Pari
##atre
genotypic
nonparametric
##ietin
dams
spreads
drawbacks
Santiago
Cock
Guinea
Treatments
hardly
cyber
Korn
1120
1747
Forensic
Utilizing
Horizon
ho
Leiden
financing
##linik
Kras
Chuang
Ung
endoc
proficiency
submuc
Dab
Neal
s100
##bel
1545
Geometric
THE
Inhibitory
sensitized
Eph
Lyn
##KII
aggress
carnitine
rifamp
bout
sludge
##jima
##oposide
shield
exploit
cGMP
Serrano
naph
##ifi
benzo
##Inf
##power
##itage
1064
##romagnetic
Multif
officinal
MOS
NLS
##ovani
polystyrene
**,
featuring
ANA
Microbes
carboxy
uncon
TMZ
Herz
doxycycline
thalassemia
Tamura
dH
outlet
Zhe
examines
normalised
5E
UPR
##BF
##YS
disass
##ulli
Parallel
Feas
UVB
Radic
##iffe
Element
UTI
ESTs
Hercules
GBS
##cion
##acid
Alberta
RCA
##esqu
##ghum
evaluates
Burgess
Zhai
##azzi
Paediatric
anthropogenic
Cup
Eosin
F12
Situ
##e2
##ICS
##osic
##idym
##angen
door
Valle
Moller
ears
##beh
##imin
explores
Simons
antimicrobials
penetrate
sulphate
firms
scarcity
Side
##BV
compass
##inesterase
Tracking
failing
PRJ
MCL
##mea
exceptions
LNCaP
Wheeler
##riksson
diode
Scal
Haas
Soluble
harness
acetylated
scratch
Werner
ROR
##utations
##851
Scaff
gratefully
amphib
##x3
1946
2217
BMSCs
dependencies
Diamond
Bear
Porter
##fol
tough
Aspects
Interval
##aryngology
blindness
locked
Respondents
helicase
MPS
##ATS
##iscus
INR
audit
Half
schedules
hyperthermia
5d
1066
MLP
odd
Wilkinson
THz
Dah
bite
vire
##using
clot
carotene
Brug
##ENS
##roleum
##odextrin
Duke
inflation
Amph
miscar
##iphatic
Treated
##LUS
SAH
steep
Suarez
spermatogenesis
AGT
Dic
SII
dentistry
jb
rater
##ansas
##mitters
IRES
Henan
welding
asthmatic
Cull
##bens
##F7
##arra
##elan
convention
transcranial
##881
##ankt
##space
cucumber
CIRCULAT
pET
##C4
organelle
Subj
naming
Traff
##intering
certif
Fujian
)***
toll
##amatsu
1930
judgments
MCF7
cholangi
Ubiquitin
##oste
opens
carboplatin
LMICs
Filho
MES
detectors
palate
cognate
1260
0038
##enedi
gastroenter
Pax6
Manc
Round
##_P
anticipate
uploaded
burgdorferi
OECD
lapse
##DY
##ospatial
Neill
Microm
Miranda
##NOWL
Metastatic
Parasitology
deterministic
Ctrl
H24
jacs
1069
##allo
histamine
Digit
intimate
BRI
R5
p300
1215
bacteremia
advisory
popularity
silicone
Jurk
Vig
Vanc
##ousse
Conv
Baron
Goncal
retroviral
denatured
Darwin
Mits
##akia
##timulated
##ocyanate
##ofectamine
Dark
##l1
Context
##ocratic
##rague
densely
Neuropathol
##IONAHA
Srinivas
CIRCULATIONAHA
primitive
daytime
9900
Editing
##occer
##wei
HAART
Radiotherapy
happy
Champ
##1100
##1200
moieties
titles
Members
Senior
##modulin
Bishop
Vog
##apto
subtracting
Arrows
stern
##rooms
Bhat
Protocols
##ogas
1194
scF
imprinting
PC3
homocysteine
THC
Traum
##ACG
Empirical
Hick
SCT
Sites
foli
ras
1197
CDs
swarm
Careg
JAK2
checks
administering
##kow
##trained
##chain
Microc
##shops
##EDG
CB1
Innovative
##elho
exome
beat
1138
0029
fru
helminth
cathepsin
Porto
territories
##awal
2012This
CNP
Kuz
##etcher
##erebral
disinfection
catast
GMP
##loyd
repeatability
Fow
[...]
